node {
  name: "global_step/initial_value"
  op: "Const"
  attr {
    key: "_output_shapes"
    value {
      list {
        shape {
        }
      }
    }
  }
  attr {
    key: "dtype"
    value {
      type: DT_INT32
    }
  }
  attr {
    key: "value"
    value {
      tensor {
        dtype: DT_INT32
        tensor_shape {
        }
        int_val: 0
      }
    }
  }
}
node {
  name: "global_step"
  op: "VariableV2"
  attr {
    key: "_output_shapes"
    value {
      list {
        shape {
        }
      }
    }
  }
  attr {
    key: "container"
    value {
      s: ""
    }
  }
  attr {
    key: "dtype"
    value {
      type: DT_INT32
    }
  }
  attr {
    key: "shape"
    value {
      shape {
      }
    }
  }
  attr {
    key: "shared_name"
    value {
      s: ""
    }
  }
}
node {
  name: "global_step/Assign"
  op: "Assign"
  input: "global_step"
  input: "global_step/initial_value"
  attr {
    key: "T"
    value {
      type: DT_INT32
    }
  }
  attr {
    key: "_class"
    value {
      list {
        s: "loc:@global_step"
      }
    }
  }
  attr {
    key: "_output_shapes"
    value {
      list {
        shape {
        }
      }
    }
  }
  attr {
    key: "use_locking"
    value {
      b: true
    }
  }
  attr {
    key: "validate_shape"
    value {
      b: true
    }
  }
}
node {
  name: "global_step/read"
  op: "Identity"
  input: "global_step"
  attr {
    key: "T"
    value {
      type: DT_INT32
    }
  }
  attr {
    key: "_class"
    value {
      list {
        s: "loc:@global_step"
      }
    }
  }
  attr {
    key: "_output_shapes"
    value {
      list {
        shape {
        }
      }
    }
  }
}
node {
  name: "deep_regression_model/fc/Const"
  op: "Const"
  attr {
    key: "_output_shapes"
    value {
      list {
        shape {
          dim {
            size: 287
          }
          dim {
            size: 399
          }
        }
      }
    }
  }
  attr {
    key: "dtype"
    value {
      type: DT_FLOAT
    }
  }
  attr {
    key: "value"
    value {
      tensor {
        dtype: DT_FLOAT
        tensor_shape {
          dim {
            size: 287
          }
          dim {
            size: 399
          }
        }
        tensor_content: "&\r\327\276n\253\223\277S\231\000\277\343\227\030\277\004\271\306?\311*\226\275l\026-\275\304\n\016\277\230_4?\207\000u\275O\361\324\2755\361I\276{T\366\275\3036\302\275\345p,\277$\323#\276{T\366\275\207\000u\275\311*\226\275]\321\020\276\316\215\255\275\316\215\255\275\000\256\350\276\311*\226\275Q6\346\275O\361\324\275{T\366\275\3036\302\275Q6\346\275\3036\302\275\3036\302\275{T\366\275\234\270\035\276\316\215\255\275~~\264\276O\361\324\275\316\215\255\275\316\215\255\275\311*\226\275O\361\324\275\253q:\276\3036\302\275\3036\302\275\370\306\217\276Q6\346\275\311*\226\275\207\000u\275\316\215\255\275\311*\226\275\316\215\255\275k\203N?+\0065\276\311*\226\275{T\366\275\207\000u\275;\033\355@\311*\226\275\207\000u\275\316\215\255\275\311*\226\275\316\215\255\275\207\000u\275\316\215\255\275\3036\302\275\3036\302\275\316\215\255\275\311*\226\275\311*\226\275j\024\204\276O\361\324\275$\323#\276\3036\302\275\207\000u\275\316\215\255\275Q6\346\275\370\306\217\276+\0065\276l\026-\275\014\365\213\276\316\215\255\275]\321\020\276{T\366\275l\026-\275O\361\324\275\311*\226\275\234\270\035\276O\361\324\275\037\326P@\\\340\215\276\3036\302\275O\361\324\275\207\000u\275\234\270\035\276\311*\226\275\223\213\257\276\352\363\t\276\316\215\255\275\316\215\255\275\361\272)\276\3036\302\275O\361\324\275\316\215\255\275Q6\346\275l\026-\275\316\215\255\275\352\363\t\276{T\366\275l\026-\2754\301\002\276\340\272?\276\311*\226\275\316\215\255\275\352\363\t\276\234\270\035\276\361\272)\276\311*\226\275\311*\226\275\311*\226\275Q6\346\275\316\215\255\2754\301\002\276\261\221a\277\316\215\255\275\3036\302\275O\361\324\275Q6\346\275\311*\226\275\3036\302\275+u/\276\311*\226\275]\321\020\276\361\272)\276\3036\302\275\3036\302\275\3036\302\275p\331\332>.i=\276\340\234\215>\261\217\037>\355\033\373>r7\245>_\330\230>\312\3226>e\336<\276\327D}\276\2068\233\277\320\203\342\275\0135K\277P\245}\273k\031M?\260\325\223\277\320\0133>\036\030B\276\330!\371>.\333\336>V\2250>P\240\323=r:\236\275\313*\367>`N\337>R\247\034\274Y\251\240>\364\235\342>\370\030_>.\213\221>W\325f\277\267\346@\276C\353&>\265s\232=\266\026V\277Gk\335>\230`\273\276\214\000\'\275\343\222\331=E\335\223>\245h\250>`\224\375=\316\365\236\275\255Uc\277\354\346R\276S\0339?\315\317\330>\021\302\021?\332wh\276`N\337>\224\r\222\277aQ\251\277\322Y\327>\223\314 >\330\202_>\225J\211\275\030\226\361>\214z\366=\316\254\034>,^\323>o\314\272=\330!\371>\323\302\001?\0228\013\277\243u\324;b\350\371=FL[>\264\376]>\317x\265>\220d\020\277\266u \277\320\212\345>\231.\021>a\307\322>P\337\035?J\353)>\232\342\336\275y\302\232=\254\016\305>\212p\314>\252C\177>\370\212\327=\312\177\305=\005\263\215\2762B\014\277\340\232\256\276?\265\271\276\311\020\244>\270~\214?k\227\252\276\274}\230?\366\321-\277L\036\232?]K\356\276|\336y?x_\000?c\253\233\276\232I\000>\370O#\277\002\211_>#\340\027?\366\200\234\276\204r#\277\026\251\324=<\366\032\277\324\322\240>lx\235\2774a\234\277\265i\212\275E\365\232?\342\216\003\277JE\217\277\'~\215>*\035\300\276{y\372\276\353\331\230?\214\t =q\340\344>\211<Q?\370\372\357>\034\3651\277\312\333\307>QS\021?NQ\312>\315\203$\277\250\021\334\275\326\034\006?\221\'F\276^\321\355=5\032w\277m7_?\210:b>\311l7?L`\225?\'CT\277\223\340\353?1Z`=\330\022V\276\346\332\214\275\"\211\003?7\236;\277\n\214\216<\334B\255\276\216\026a\276\257\217\037>w\3202\275\337\220\306>A\270@?\372a\326>\204\333\255\276\013t\364\277\360mz\275\021#\261\275\304f\212>3\254v\275\264@\031=6dt?\020E\330\277\317\343m\277s\022\t\275\"\253\200\276CVD=+2\221>\205\210\257?-\374\341>Qr/?\2420\225>D\002\200?P\312(?\217O\226\277\034\272\300?\177[\000@\215\302_\277\347\014\206?\362\210\227\277\177\347V?\'F\021\277\2016\004\277\022Y\020?\256\336\273\276\2569#\277x1C\277\271!*?\231\216\267\275\266\256\335\276G\031l\275J9\350\276\020\212\345\277\226r\260?{8\024?\216\236<=`\333\355\276\261\357\247=\031\244\331\274{\355\007\276\332\2717\277\263\302-\277R\263\034\277\377\330$>\367\364\001\300W8\360\276m2\t>bI[?=P\374\276\340\374x\277\236\221\321>\232\333\351\275<\364(\2773\002\245>\241\005\322>Zw=>D\341\217\277\371i\220\277\256\264\200\277`x\232\277Y\245a\277\017\274\336\277o:\203\277\213\r\014\277\014M\372\275\0352\221\277vFy?\035\010\336\276\305\316\336\276:b!?D\325\000\277I\001/?\202\247\216\277\301-R\276J\345\261=\357\372/\276{\3361?y\216E?A6\220>6\225\246\277\2319\331\277\256\352\314\277\r\203\245\276\211E\311\277^&\214>4\024\220\276N\032\213>|o\206\277v\371+?S]Z>Q\356\032@m\3232\277\266C\333\276h{\212\277\304p+\277\377\000Q\275\202\204\346\276R\211B\277\306\322\010?\027\\7?\344\262\251>\307e\022?\215\022\231\277\3776\032>\356\200\341\276t&\026=\r\320\256\276F\245\363>0\021\027\277\016\260\257?n\253\223\277LZ\376?\343\227\030\277?\231$\277\311*\226\275l\026-\275\304\n\016\277\230_4?\207\000u\275O\361\324\2755\361I\276{T\366\275\3036\302\275b\257\275?$\323#\276{T\366\275\207\000u\275\311*\226\275]\321\020\276\316\215\255\275\316\215\255\275\000\256\350\276\311*\226\275Q6\346\275O\361\324\275{T\366\275\3036\302\275Q6\346\275\3036\302\275\3036\302\275{T\366\275\234\270\035\276\316\215\255\275~~\264\276O\361\324\275\316\215\255\275\316\215\255\275\311*\226\275O\361\324\275\253q:\276\3036\302\275\3036\302\275\370\306\217\276Q6\346\275\311*\226\275\207\000u\275\316\215\255\275\311*\226\275\316\215\255\275k\203N?+\0065\276\311*\226\275{T\366\275\207\000u\275\352\363\t\276\311*\226\275\207\000u\275\316\215\255\275\311*\226\275\316\215\255\275\207\000u\275\316\215\255\275\3036\302\275\3036\302\275\316\215\255\275\311*\226\275\311*\226\275j\024\204\276O\361\324\275$\323#\276\3036\302\275\207\000u\275\316\215\255\275Q6\346\275\370\306\217\276+\0065\276l\026-\275\014\365\213\276\316\215\255\275]\321\020\276{T\366\275l\026-\275O\361\324\275\311*\226\275\234\270\035\276O\361\324\275\227\240\234\276\\\340\215\276\3036\302\275O\361\324\275\207\000u\275\234\270\035\276\311*\226\275\223\213\257\276\352\363\t\276\316\215\255\275\316\215\255\275\361\272)\276\3036\302\275O\361\324\275\316\215\255\275Q6\346\275l\026-\275\316\215\255\275\352\363\t\276{T\366\275l\026-\2754\301\002\276\340\272?\276\311*\226\275\316\215\255\275\352\363\t\276\234\270\035\276\361\272)\276\311*\226\275\311*\226\275\311*\226\275Q6\346\275\316\215\255\2754\301\002\276;\002\221?\316\215\255\275\3036\302\275O\361\324\275Q6\346\275\311*\226\275\3036\302\275+u/\276\311*\226\275]\321\020\276\361\272)\276\3036\302\275\3036\302\275\3036\302\275p\331\332>.i=\276\207\023\000\300\311iU\300\355\033\373>r7\245>\345~I\300\274\203!\300e\336<\276\327D}\276\001\365\234>\223[\324\277\0135K\277P\245}\273k\031M?\260\325\223\277\320\0133>\036\030B\276\330!\371>.\333\336>M\244 \300P\240\323=r:\236\275\313*\367>`N\337>R\247\034\274\314JF\300\364\235\342>\370\030_>.\213\221>o\261\r?\267\346@\276U\232&\300G\304\367\277\266\026V\277Gk\335>\310`A@\214\000\'\275\343\222\331=\033lG\300\245h\250>`\224\375=\316\365\236\275\302}\n?\354\346R\276;\315\211\277\315\317\330>\006\312\245\277\n\355\260?`N\337>\224\r\222\277\361\023\346>\322Y\327>\223\314 >\330\202_>\347s\032\300\030\226\361>\214z\366=\330\350\367\277,^\323>o\314\272=\330!\371>\323\302\001?\351\005\001?\243u\324;b\350\371=FL[>\264\376]>\317x\265>\220d\020\277\266u \277\320\212\345>\231.\021>\251\341\027\277\010\356\t\277J\353)>\232\342\336\275\2724\347\277\350#|\277\212p\314>\252C\177>\370\212\327=\312\177\305=\005\263\215\276\243\257\272>\340\232\256\276?\265\271\276\3303u\276\031\315\006>\316\367{?\327\316\006?\3642[\276\003\034Y\277j\320\234\277\217\217\230\276\033Q\254\277D\304\316>\306\275\014?/\322\344\2759\\\343=U\005;\276y\000\347\276a\000(\276\214\307i\276\312|t>\244\276\345=v\203\313\277[\001\230\2776S\213?d\301\244>1\005\252=p-*\277\270\273o>\001\356\022\277\274D\014\277\331{\310?(\277\177\275\013\362\365\276wc\021\277\313\311\361;:\324@\2777\344G?(\t!>\002\356\313>Ia\214?\336\3420\277^l\211>\252\352\340>\343\254<\2766;\236\274\315\035\036\2772#*?\t\211\356>A\225?>\016#\'\276\304-D\277\275\276\242\276\276\226l?\254\363\260=\t\247p\277\237\014\243>\205\263\312\276\337\272%\2761\273\010\276\356m3>\360\352\204\275\033k9\272_J\355=.\203\242?\275\365D?S\211\017\300\246\030?>L\201\302\276\014\367O=k\032A\276\3768M?\004J\247\274\210Y\225\277\035(\253\277\333\205\007>\007n\221\276\362\216N>\231\245%\277&#P\277\254s\214>\207\034\025\273\t|X?\307\357`\275\357\315\242\277\311\210Q\277\250\333\021\277\201*\r\277b\242H\277\206\247E?\226<\346\275?I\212\276301>\245SA?\375\250\307>\022\377W?\211\033\016\277\230\t@\277i\360d\277I\364n\276tH>?\274\220\370\275=\025\342=\202\272\230\277\234\360\037?V/&?(\257C\276\n-t\277\311fT>PX\007\277\300:\352>\327\026g?\312\034#>3V\272>\232\364\272>\261\221\357\277\350\364\251\276a\033\030?\"\007\305;\362[\330\276ry\255\276\250\030\224>\377\346\250>\010\207\275>\\7\002\276\320m\223?k\236\005>\336\353\252=\240r,\277\263o\376\274\254\266%\277\321\017P\276\354\301\016\277\237\377\014@\262\324\363\2756\225\274>\022\263!\2779\337O\276H7\242\2756\021k\276\017L\333\276\013\n\312>@\020\350=\241\t!?\375\t\023\276:&d\277w\310\341\276i\207O>\005\352\355\276\305\350\256\276?F\267\277\036\005=><\317\260\2768\200\353\276\254-2\277\367:Z?\n\231\343=9\235+\277\200\356\021\277\215P\016\277\332\376\\>\215\313\241\277:\346\245\2779\257\245\276c\244\367=[7\312\276\250\003%\277e&\261>\260\215\014\276@\325=>\371\271\340\276\305\277>\276oU@\277Y{\202\277\216\353\\>\177\377\325\276n\340\233\277yPg?\364t\224>\350\000o\277\240\265\207\277%\201]?S\231\000\277v[\326??\231$\277\311*\226\275l\026-\275\304\n\016\277\230_4?\207\000u\275O\361\324\2755\361I\276{T\366\275\3036\302\275b\257\275?$\323#\276{T\366\275\207\000u\275\311*\226\275]\321\020\276\316\215\255\275\316\215\255\275\000\256\350\276\311*\226\275Q6\346\275O\361\324\275{T\366\275\3036\302\275Q6\346\275\3036\302\275\3036\302\275{T\366\275\234\270\035\276\316\215\255\275~~\264\276O\361\324\275\316\215\255\275\316\215\255\275\311*\226\275O\361\324\275\253q:\276\3036\302\275}k(A\370\306\217\276Q6\346\275\311*\226\275\207\000u\275\316\215\255\275\311*\226\275\316\215\255\275k\203N?+\0065\276\311*\226\275\212\311\004A\207\000u\275\352\363\t\276\311*\226\275\207\000u\275\316\215\255\275\311*\226\275\316\215\255\275\207\000u\275\316\215\255\275\3036\302\275\3036\302\275\316\215\255\275\311*\226\275\311*\226\275j\024\204\276O\361\324\275$\323#\276\3036\302\275\207\000u\275\316\215\255\275Q6\346\275\370\306\217\276+\0065\276l\026-\275\014\365\213\276\316\215\255\275]\321\020\276{T\366\275l\026-\275O\361\324\275\311*\226\275\234\270\035\276O\361\324\275\227\240\234\276\\\340\215\276\3036\302\275O\361\324\275\207\000u\275\234\270\035\276\311*\226\275\223\213\257\276\352\363\t\276\316\215\255\275\316\215\255\275\361\272)\276\3036\302\275O\361\324\275\316\215\255\275Q6\346\275l\026-\275\316\215\255\275\352\363\t\276{T\366\275l\026-\2754\301\002\276\340\272?\276\311*\226\275\316\215\255\275\352\363\t\276\234\270\035\276\361\272)\276\311*\226\275\311*\226\275\311*\226\275Q6\346\275\316\215\255\2754\301\002\276;\002\221?\316\215\255\275\3036\302\275O\361\324\275Q6\346\275\311*\226\275\3036\302\275+u/\276\311*\226\275]\321\020\276\361\272)\276\3036\302\275\3036\302\275\3036\302\275p\331\332>.i=\276\340\234\215>\261\217\037>\355\033\373>r7\245>_\330\230>\312\3226>e\336<\276\327D}\276\001\365\234>\320\203\342\275\0135K\277P\245}\273k\031M?\350\021\003?\320\0133>\375:b@\330!\371>.\333\336>V\2250>P\240\323=r:\236\275\313*\367>`N\337>R\247\034\274Y\251\240>\364\235\342>\370\030_>.\213\221>o\261\r?\267\346@\276C\353&>\265s\232=\266\026V\277Gk\335>\310`A@\214\000\'\275\343\222\331=E\335\223>\245h\250>`\224\375=\316\365\236\275\302}\n?\354\346R\276S\0339?\315\317\330>\021\302\021?\210t?@`N\337>\263I\035?\361\023\346>\322Y\327>\223\314 >\032y\225\300\225J\211\275\030\226\361>\214z\366=\316\254\034>,^\323>o\314\272=\330!\371>\323\302\001?\351\005\001?\243u\324;b\350\371=FL[>\264\376]>\317x\265>\220d\020\277\266u \277\320\212\345>\231.\021>a\307\322>P\337\035?J\353)>\232\342\336\275y\302\232=\254\016\305>\212p\314>\252C\177>\370\212\327=\312\177\305=\005\263\215\276\243\257\272>\340\232\256\276?\265\271\276\311\020\244>R\205\002\276\034\210\007?R\267\033?\245\314\322\275\003\237+\277\305\350!\276$x,\277\313\3747=\207\315s\277tH\272\276{&+\277\346\027\231\277\024\302\214?\000R,?m\236\027?)\242\265\277\335\213\017?h\373\005?Xi\007?*-\001?\336\020\001\277:}\023>\276\237\342\2765\377\213\2769\271\374\274@\223\234\277\214;=\276-CY>u6\244\277\004\275\251\277\353a7?\354\276\253\277\344\355\\?\315y\222\277a\212\215\276\310Yk\277f\232\035\277\001\275\236?\210\217\302=\205\306x?\336\203\211\276\026R\326\277\230\252\024\300\362\300\325?\355\340\335\277O\324\327?\315\031\033?E\222\201\275\351v7\277T\343\270\277f\341\227?\\j<\276f\205R\277\004\241\261\275\266\036O\276\033\261\220\2753\300\244\276\005\304\201\277\\|G>\021\202\206\277\224:X>]\356[\277\270\215C\277\216\305p?\036\344\375\275\352\347}\277\232#\002\2773L\026\300~Y\\?\246?\273=He\037\277\231;\270\277o\021g\276\234\364i\277\241\324=\276c\212\331>\3553h=\271\257A\276\330ze\277\325x\316\277U\337\353\276\317z\202>\262\363\323?\354{\326\277\370\246m?:\367\033?w\347*?\216\027\211>\324\314\213?\025\270X\275W\037\005\276WDX\277\244g}\277\030\021c\277\223\200\234=4\252%?\001\240\337\276\205\251\005\277g\256\206\277\242o\227\275\266\333\352=~!\363>\013\261\t\274Z\201\305\275\272~\022?\327\273N?\2624\026?\"\311\343>u\362\310=\314rl\275\\\251\211\276\002:a>\241\026\220>\370\252\303>Q\244\000\276\374\360@>\321;\"\276\353\232\363\274\304$~\300\210Wr\277\325\221\216>\320k\324?A\314\r?m\374\377\276\335\317\266?\213C\225\277\002\035M\277\211%\265\277\370\340E\300\217\226\334>\347\022b\276oC\245\277\236\303\202?\'2\204?=\221\200\277\3128\320?@\333\331\274awW?N\250\227?\322\\\206?A\305|\277\030v\237\277\322b\006@\257\320*?kM\005?\037H\234>aZ0\277;\034\205>\366\025\"\277\305\233\003?\261`\235=\337<\334\277\214\365T\276J}\367=\326e\017?\313\300\325\276\252\177\275>\255\240\005?\301\206\242>=\307\342\277\262\264s\277\353G=\300\235\253-\277\352\335_?\261\312S\277\304\326F\300\035\014\264>\301g\264=\000\342\270?\333\277X>I\254\215\277\373\235\276\277S\\\334?\225\221H>+Y\375\276M\316J\277 K\240\277%\201]?S\231\000\277\343\227\030\277\004\271\306?\311*\226\275l\026-\275\304\n\016\277\332W\265\277\207\000u\275O\361\324\2755\361I\276{T\366\275\3036\302\275\345p,\277$\323#\276{T\366\275\207\000u\275\311*\226\275]\321\020\276\316\215\255\275\316\215\255\275\313\223\014@\311*\226\275Q6\346\275O\361\324\275{T\366\275\3036\302\275Q6\346\275\3036\302\275\3036\302\275{T\366\275\234\270\035\276\316\215\255\275~~\264\276O\361\324\275\316\215\255\275\316\215\255\275\311*\226\275O\361\324\275\253q:\276\3036\302\275\3036\302\275\370\306\217\276Q6\346\275\311*\226\275\207\000u\275\316\215\255\275\311*\226\275\316\215\255\275k\203N?+\0065\276\311*\226\275{T\366\275\207\000u\275\352\363\t\276\311*\226\275\207\000u\275\316\215\255\275\311*\226\275\316\215\255\275\207\000u\275\316\215\255\275\3036\302\275\3036\302\275\316\215\255\275\311*\226\275\311*\226\275j\024\204\276O\361\324\275$\323#\276\3036\302\275\207\000u\275\316\215\255\275Q6\346\275\370\306\217\276+\0065\276l\026-\275\014\365\213\276\316\215\255\275]\321\020\276{T\366\275l\026-\275O\361\324\275\311*\226\275\234\270\035\276O\361\324\275\037\326P@\\\340\215\276\3036\302\275O\361\324\275\207\000u\275\234\270\035\276\311*\226\275\223\213\257\276\352\363\t\276\316\215\255\275\316\215\255\275\361\272)\276\3036\302\275O\361\324\275\316\215\255\275Q6\346\275l\026-\275\316\215\255\275\352\363\t\276{T\366\275l\026-\2754\301\002\276\340\272?\276\311*\226\275\316\215\255\275\352\363\t\276\234\270\035\276\361\272)\276\311*\226\275\311*\226\275\311*\226\275Q6\346\275\316\215\255\2754\301\002\276\261\221a\277\316\215\255\275\3036\302\275O\361\324\275Q6\346\275\311*\226\275\3036\302\275+u/\276\311*\226\275]\321\020\276\361\272)\276\3036\302\275\3036\302\275\3036\302\275p\331\332>[d\331?\277z#@\261\217\037>\355\033\373>\244\371\013\300\004h\001@\312\3226>\2448\335?\302\301\300?\2068\233\277\031\013\270?\032\242\202?\376v\n@k\031M?\260\325\223\277@e @{\031\326?\330!\371>.\333\336>V\2250>P\240\323=r:\236\275\313*\367>`N\337>R\247\034\274\'E\001@\364\235\342>\370\030_>.\213\221>W\325f\277\231\310\324?C\353&>_\211\005@\262\357j?Gk\335>\264\364\251?\214\000\'\275]r%@\025\337\376?\'A\n\300`\224\375=\316\365\236\275\255Uc\277\354\346R\276S\0339?\315\317\330>\021\302\021?\n\355\260?`N\337>\224\r\222\277aQ\251\277\322Y\327>\223\314 >\330\202_>\225J\211\275\030\226\361>\214z\366=\316\254\034>,^\323>{r;@\330!\371>\323\302\001?\\\355\227\277\243u\324;b\350\371=FL[>\264\376]>\317x\265>D\375>>\\\017\n>\320\212\345>\231.\021>a\307\322>P\337\035?\267\275\357?P\300\371?s\301\345?\254\016\305>\212p\314>\301\032\363\277\370\212\327=\312\177\305=\005\263\215\276&O\220\277oA\253?I*\254?\311\020\244>|\225\357>\261%\310<\257\257\231\277\322\206$?\227{L\276O\303\263>M\333\025?T\031\016>\370\327\311>.\n\253>\325\002~?\t\360\266>\r`\225\277\321GA>pb\030\277\307T\n>\017\262Q?\331\361h\276\266?\022?\217\305s>\274,3\277\r\340\366\275\026\2357?&6#\277\rv\253>h\303\270>\032\177\335\276\211\331\030\277\233\207\322<\210\377n\276}\006g>\330\321\316>&\354\223\275\0021\207?\245S:?\n:\370\275\033\363B?\207\3134\277\333\247\272>o~\373\276\'Z\374>\301\262b?\033\030\272\276N6\237>\215\304@>\035kd\277E\332?\276X;\221>\227\032f\276h?\303?Q\235~\277\251C\236\275z\2273\277\351-\254\276\214\332\r\277\3209\236\276\236\241\303\276\225\355X>S\037\006\277D\377\177?\323\332D?\024L\032\277\024\020\204?,r\277=\026p\270>M\315\302=\321u\253\277f\304\'\276m\235n\277,\340\351\276q\242\370\276\2131\005\276\004\364\322\276Db\"=:\320\"><\311\246\276As\204\276\002`M\277\033\003$\277z\221[\277\255\321\027\277:\353Y\276\343\357v\277\003\300\224;\221\211\266>\256\325\306\276L\220\201\276s\316\216\277\016s\'>\030~@?\200\3431?\353\254\022\276\030W\252?&\2302>M\000&?\306\202M?\236|.\276\3446\252\276\262s^\276\250,a\276|\017\316\276\364\247\216\275A\031\245=\020\177.?\tW\336\276\372\377`\277p\244\027?0\304)?\253j\031>Al\253>\264\260\025\277\027_->\317\'\256\276\322|\302?\247\014\343>Dn\256\276\033\006\006\276\373\0355>4O3\276\254\240\250>`\335\026?\361X\000\277m\322\004\276F\247\321>\270\241D><\010`<\374\275\301\276\334\266j\276t[\003?\323s\'\277\032\315B\276E\215\237\276\005\3161=$\300\226=\034\347\324<\320\261\213?47\346<\220|\357>A_\333\276\250qb\276\031\246\322>\350v\261=.\000\030\277<\254/\277\315<#\277B}(\275\317l\017?\340y\206\272;C\017>K\365\036\277\022\010\201\276_?\345>\257\312\312\276\017\344\217\275\260\323\244<\003\362\374?\2345H?\304\034x>oYk>^\331\231\275\tCF\276\335\234\177\277U \317\274J\250\036\277\274\273[?n\003\035\276B\233\301>\212\314\200\273\013\0276\277U>\225\275\226\345\003\277V\255\016\277/\344\010\275$\241\257>cA\212\275Q\036\014?u\347\217\277n\253\223\277S\231\000\277\343\227\030\277\004\271\306?\311*\226\275l\026-\275\304\n\016\277\230_4?\207\000u\275O\361\324\2755\361I\276{T\366\275\3036\302\275\345p,\277$\323#\276{T\366\275\207\000u\275\311*\226\275]\321\020\276\316\215\255\275\316\215\255\275\000\256\350\276\311*\226\275Q6\346\275O\361\324\275{T\366\275\3036\302\275Q6\346\275\3036\302\275\3036\302\275{T\366\275\234\270\035\276\316\215\255\275~~\264\276O\361\324\275\316\215\255\275\316\215\255\275\311*\226\275O\361\324\275\253q:\276\3036\302\275\3036\302\275\370\306\217\276Q6\346\275\311*\226\275\207\000u\275\316\215\255\275\311*\226\275\316\215\255\275k\203N?+\0065\276\311*\226\275{T\366\275\207\000u\275\352\363\t\276\311*\226\275\207\000u\275\316\215\255\275\311*\226\275\316\215\255\275\207\000u\275\316\215\255\275\3036\302\275\3036\302\275\316\215\255\275\311*\226\275\311*\226\275j\024\204\276O\361\324\275$\323#\276\3036\302\275\207\000u\275\316\215\255\275Q6\346\275\370\306\217\276+\0065\276l\026-\275\014\365\213\276\376w<A\317\335\341@{T\366\275l\026-\275O\361\324\275\311*\226\275\234\270\035\276O\361\324\275\227\240\234\276\\\340\215\276\3036\302\275O\361\324\275\207\000u\275\234\270\035\276\311*\226\275\223\213\257\276\352\363\t\276\316\215\255\275\316\215\255\275\361\272)\276\3036\302\275O\361\324\275\316\215\255\275Q6\346\275l\026-\275\316\215\255\275\352\363\t\276{T\366\275l\026-\2754\301\002\276\340\272?\276\311*\226\275\316\215\255\275\352\363\t\276\234\270\035\276\361\272)\276\311*\226\275\311*\226\275\311*\226\275Q6\346\275\316\215\255\2754\301\002\276;\002\221?\316\215\255\275\3036\302\275O\361\324\275Q6\346\275\311*\226\275\3036\302\275+u/\276\311*\226\275]\321\020\276\361\272)\276\3036\302\275\3036\302\275\3036\302\275p\331\332>.i=\276\340\234\215>\261\217\037>\232;\330\277r7\245>\331c\266\277\025^8@e\336<\276\020\226P@\001\365\234>\320\203\342\275\032\242\202?\321\365\n\300\260\363\277\277\350\021\003?\320\0133>\036\030B\276\316\027\320\277.\333\336>\370\2666@J\307\017@\2648\303?\236s\316\277`N\337>R\247\034\274\2415\262\277\353\202\326\277\370\030_>\272\237P@o\261\r?\267\346@\276\275w;@\265s\232=\262\357j?Gk\335>\230`\273\276\370\300\037@\343\222\331=r\360\264\277\245h\250>`\224\375=\335\037\304?\302}\n?\354\346R\276;\315\211\277\315\317\330>\006\312\245\277\332wh\276`N\337>\263I\035?\361\023\346>\322Y\327>\223\314 >\003}\016\300\347s\032\300\032.\322\277\214z\366=\330\350\367\277,^\323>o\314\272=\316\027\320\277\302^\322\277\351\005\001?\243u\324;\243\007\214?\202\252\t\300\264\376]>\317x\265>\362\201\023=\270\233\222\274\221?\001\300\231.\021>\227\361*@Rd\031@J\353)>\232\342\336\275y\302\232=\262{\212\277\212p\314>\252C\177>\370\212\327=\312\177\305=\005\263\215\276\243\257\272>\340\232\256\276?\265\271\276A\345\346\277m\245r\277\242\331\271\277\016a\267\276\232\201\"@\332q\351?q`\264?\337\2269@\357f\302?1\207\214\277oI.?m\006\273?T\223.\277\252\277\311>\tF\237?\335E\024\277\300~\334?\002?\364?\331\371\333>\345\317\320\276l\267=\277\255\376\235\277\330\247\216>#\266\031\277\37326>\327ee\276<\342>?]\316\235?\326{,\277\311*\022\276\235f\210\277\246\014\341>\037\2175?,\3478@\205&E\277\333F\304?X\241\213\277R\223C\277N7M>\265qS\277\301;\016?>*\226@\254\356\272\276\346\005E@\360\364b?\211\265t\277g\272X\277\231~d@\260\366\225\277\026 \344>M\331\345?\365\210\001>\320\300\262?\205\336\333\277\0357]\275\354\005\337\276/\275\242\267\200,v\277\004\263\245?\344Kq\277\276R\331\276\257\216\375> \317\330\277BA\224\276\327\375\351\275\240\024>@\254\254\225\27710\211?\\_s\277$yW?Z\001\301=\260\237\321>7\334\034\277\004~\024\277oG\370=1\340\352\276\026\244\036?[]\255\276\200R\204?\267b\275\277\3005\370\275\242\363\311=zD\267?\024\267\257\275`\246z\277\036\351\310>M\n<\277\350\315=\275A:n\275\255\370Y\277\031\273\247\276\3546\231\277Gi\371\276cm\254\277S\252\243?\002q??\020\252\204?\302U\240>\017\333\354\276k\271\003@|B\335\276)nL\277?\177X\277\003\217\317\276\274\227\370<\314\325|\276;\226E?\017e\336\277\361\230\366\277f\004\377\277Z\213\002\300\310>&\277}y$=\375\225\322>\221-F\277\260\252\262\276\316\200\235?j2\006@\227\347\246\276\\i\273\277f*\243?\362\r\007>\267\364g?H\273\251?\330\316\337?\356*\217?Br\353?\372\213%\277*\037\316\276\214\030,\277\216\025\373\276b=\001\277\235\235\311\277\204!d?i\'\254?WLt?\035\027\306\2765\r\372\276z\377\034\276_{\027?\022b\020>A:<\277C\316&\277\245u\301?LN\303=\361Wp\277\265z$?\030\nr\276\333\334\024\277\302\344V@~\233\020\276C[P?\340\322j>\\\257\220>JW\366\275\222\t@?\262;\227\276\314+\030\277S\322\320\275\275\375\344?,\327\312?\352I\005@\336\312\223\277C{\314=g\001H?\330r4\2777\322\365\276\314\372\372\276y\017,?2d=\276W\347\177\276\204\327\243\27598o\277|\243\315>\243\274L\277\001n\010\300\265\024\216\277\347\241\314\275n\253\223\277S\231\000\277\343\227\030\277\004\271\306?\311*\226\275l\026-\275\304\n\016\277\332W\265\277\207\000u\275O\361\324\2755\361I\276{T\366\275\3036\302\275\345p,\277$\323#\276{T\366\275\207\000u\275\311*\226\275]\321\020\276\316\215\255\275\316\215\255\275\313\223\014@\311*\226\275Q6\346\275O\361\324\275{T\366\275\3036\302\275Q6\346\275\3036\302\275\3036\302\275{T\366\275\234\270\035\276\316\215\255\275~~\264\276O\361\324\275\316\215\255\275\316\215\255\275\311*\226\275O\361\324\275\253q:\276\3036\302\275\3036\302\275\370\306\217\276Q6\346\275\311*\226\275\207\000u\275\316\215\255\275\311*\226\275\316\215\255\275k\203N?+\0065\276\311*\226\275{T\366\275\207\000u\275\352\363\t\276\311*\226\275\207\000u\275\316\215\255\275\311*\226\275\316\215\255\275\207\000u\275\316\215\255\275\3036\302\275\3036\302\275\316\215\255\275\311*\226\275\311*\226\275j\024\204\276O\361\324\275$\323#\276\3036\302\275\207\000u\275\316\215\255\275Q6\346\275\370\306\217\276+\0065\276l\026-\275\014\365\213\276\316\215\255\275]\321\020\276{T\366\275l\026-\275O\361\324\275\311*\226\275\234\270\035\276O\361\324\275\227\240\234\276\\\340\215\276\3036\302\275O\361\324\275\207\000u\275\234\270\035\276\311*\226\275\223\213\257\276\352\363\t\276\316\215\255\275\316\215\255\275\361\272)\276\3036\302\275O\361\324\275\316\215\255\275Q6\346\275l\026-\275\316\215\255\275\352\363\t\276{T\366\275l\026-\2754\301\002\276\340\272?\276\311*\226\275\316\215\255\275\352\363\t\276\234\270\035\276\361\272)\276\311*\226\275\311*\226\275\311*\226\275Q6\346\275\316\215\255\2754\301\002\276\261\221a\277\316\215\255\275\3036\302\275O\361\324\275Q6\346\275\311*\226\275\3036\302\275+u/\276\311*\226\275]\321\020\276\361\272)\276\3036\302\275\3036\302\275\3036\302\275p\331\332>.i=\276\340\234\215>\261\217\037>\355\033\373>\244\371\013\300_\330\230>\312\3226>e\336<\276\327D}\276\2068\233\277\320\203\342\275\0135K\277P\245}\273k\031M?\260\325\223\277\320\0133>\036\030B\276\330!\371>.\333\336>V\2250>P\240\323=r:\236\275\313*\367>`N\337>R\247\034\274Y\251\240>\364\235\342>\370\030_>.\213\221>W\325f\277\267\346@\276C\353&>\265s\232=\266\026V\277Gk\335>\230`\273\276\214\000\'\275\343\222\331=E\335\223>\'A\n\300`\224\375=\316\365\236\275\255Uc\277\354\346R\276;\315\211\277\315\317\330>\021\302\021?\332wh\276`N\337>\224\r\222\277aQ\251\277\322Y\327>\223\314 >\330\202_>\225J\211\275\030\226\361>\214z\366=\316\254\034>,^\323>o\314\272=\330!\371>\323\302\001?\260W\333\277\243u\324;b\350\371=FL[>\264\376]>\317x\265>\220d\020\277\266u \277\320\212\345>\231.\021>a\307\322>P\337\035?J\353)>\232\342\336\275y\302\232=\254\016\305>\212p\314>\017\373\200\300\370\212\327=\312\177\305=|\334[>Q\371\235\277\340\232\256\276?\265\271\276s\022H?\233\033+\276HQ\022\277\357\236\227\277\342\312F\275\362\220s\276%M\035>A\216\347\276\210r\002\277!k8?R\024\273\276z\224\371\276\21087\275\ti\253\277\215\247\233\277\005=.\276DJ^\276\350\321\246>\363\275\"\277\255\354\025>\331\214\227\276\242\217\\\277\205\304\212\276\365\3415?0!\010\277\237J$\276\326#\"?\2404\365\276\240\031&?\343\"\213\276\266%\271>\270\262{\277Bp\351\274\334\247\000\277\220h\030>e\360\322>\253\230_?\3377:>W\272\252\276\337\213 <O\240\036>\020\347\300?B,J?\355\3059=lE\006?\325X\020?Ay\036\2776\226\004?\"\342L\276\326\246\244=\363\207\305\274\354p^\277aB\364>yI\257?\000\272\031\277K\353\345\275\002\334\305\276Gzx?\301D\215\277|,\326\277\230q[>\207A\221>\251\311M?\367\312d>Dn\267\275@_\361>\024\3017?N\234\320\277\360a\215?\366\033U\277r<\227\274\256\021\216>(\316\215>\025\201\007\276\243\3677\275&\235\026?I(\254\276Q\001\230\276\'\311M\276\203(\220<\325\322D?8*@\277\340\317]\276A\276\301\277\004\024\206\276\030*G\277<\317\270\277\3019\215\276dZ\031\276\002\341\246\275\267K\310\276\210hr?\325\205r?\261\213N?\024\234\263=\001$\017\277d\005\222>\304cV?Ba\341\275\t\001\250>o\263\270\276O\316(\277\207\261Q\277fT\231\277\271\273\220\275\224\332\243\276\252\005\373\277\323t&\277\260\267\031\277O@\245\276O\241\200\276\343DW\275<\256j>\226\367\333\276\313c\353\276\244LZ\277S\220\234\277\003p\203\276\235\353\214?\224\034\251>\322\211(>UI\236?A\315.\277\221\2100\275\366\034\231>\354\3705\277\360&\243>\206\241\242>}\001\016?\026|\033?T%W\275\244\373\202\276\205\374\016?\346\2756\277^k\376=\2358P?\0038\210\275\004\304a>|.\230=\253B\265\276)\364\364\276\326\\\224\275\261\222\031>\206\207H\277\014\022\203\277\227\345\241\277\250M\316\276\007\276(>\030\236\233\276\352Rg>\325K\034\276\006fh>\353\346\n\276<\263\217\276n0C\277\007a7\276H\"\215>s\312\341>u#\242\276\304\232y\277\256\355\276\276\311z\231>\305\000\222\276\207\227P=W\"H\277\374\353\322=\211\344\031\275\255\321\034\277g\335\025>BJ\302\276FW\345\276\204\331\\?\322^\033?\007\003\320\276\274\241\007\276\365\254L\277\000\201\021?\351x=\277%\201]?LZ\376?\343\227\030\277?\231$\277\311*\226\275l\026-\275\304\n\016\277\332W\265\277\207\000u\275O\361\324\2755\361I\276{T\366\275\3036\302\275\345p,\277$\323#\276{T\366\275\207\000u\275\311*\226\275]\321\020\276\316\215\255\275\316\215\255\275\000\256\350\276\311*\226\275Q6\346\275O\361\324\275{T\366\275\3036\302\275Q6\346\275\3036\302\275\3036\302\275{T\366\275\234\270\035\276\316\215\255\275~~\264\276O\361\324\275\316\215\255\275\316\215\255\275\311*\226\275O\361\324\275\253q:\276\3036\302\275\3036\302\275\370\306\217\276Q6\346\275\311*\226\275\207\000u\275\316\215\255\275\311*\226\275\316\215\255\275k\203N?+\0065\276\311*\226\275{T\366\275\207\000u\275\352\363\t\276\311*\226\275\207\000u\275\316\215\255\275\311*\226\275\316\215\255\275\207\000u\275\316\215\255\275\3036\302\275\3036\302\275\316\215\255\275\311*\226\275\311*\226\275j\024\204\276O\361\324\275$\323#\276\3036\302\275\207\000u\275\316\215\255\275Q6\346\275\370\306\217\276\373\260\264@l\026-\275\014\365\213\276\316\215\255\275]\321\020\276{T\366\275l\026-\275O\361\324\275\311*\226\275\234\270\035\276O\361\324\275\227\240\234\276\\\340\215\276\3036\302\275O\361\324\275\207\000u\275\234\270\035\276\311*\226\275\223\213\257\276\352\363\t\276\316\215\255\275\316\215\255\275\361\272)\276\3036\302\275O\361\324\275\316\215\255\275Q6\346\275l\026-\275\316\215\255\275\352\363\t\276{T\366\275l\026-\2754\301\002\276\340\272?\276\311*\226\275\316\215\255\275\352\363\t\276\234\270\035\276\361\272)\276\311*\226\275\311*\226\275\311*\226\275Q6\346\275\316\215\255\2754\301\002\276\261\221a\277\316\215\255\275\3036\302\275O\361\324\275Q6\346\275\311*\226\275\3036\302\275+u/\276\311*\226\275]\321\020\276\361\272)\276\3036\302\275\3036\302\275\3036\302\275p\331\332>.i=\276\340\234\215>\261\217\037>\355\033\373>r7\245>_\330\230>\312\3226>e\336<\276\327D}\276\2068\233\277\320\203\342\275\0135K\277P\245}\273k\031M?\260\325\223\277\320\0133>\036\030B\276\330!\371>.\333\336>V\2250>P\240\323=r:\236\275\313*\367>`N\337>R\247\034\274Y\251\240>\364\235\342>\370\030_>.\213\221>W\325f\277\267\346@\276C\353&>\265s\232=\266\026V\277Gk\335>\230`\273\276\214\000\'\275\343\222\331=E\335\223>\245h\250>`\224\375=\316\365\236\275\255Uc\277\354\346R\276S\0339?\315\317\330>\021\302\021?\332wh\276`N\337>\224\r\222\277aQ\251\277\322Y\327>\223\314 >\330\202_>\225J\211\275\030\226\361>\214z\366=\316\254\034>,^\323>o\314\272=\330!\371>\323\302\001?\2606\331\277\243u\324;b\350\371=FL[>\264\376]>\317x\265>\220d\020\277\266u \277\320\212\345>\231.\021>a\307\322>P\337\035?J\353)>\232\342\336\275y\302\232=\254\016\305>\212p\314>\252C\177>\370\212\327=\312\177\305=#&5>\234L\236\277\340\232\256\276?\265\271\276\311\020\244>\253\252\340\276\267\2419\277\230\372\370\276\233A\322\276\021\006\037\277\220\261\002?\322\305\375\276\010\231\377=\377\241\366>z\213\275\2768\010\224>\237\234\223\275\354.\212\27769\276\276\215\300\223\276t\031\276\276\314\360\341<\022D\237\276\356\032~?\366Q\252?9\271\035\276\373\327\'\277-\333\032=>\031.\277\274L\177\275G\025d>%\031\254\276\006\021\355=\263\\\022?\001\215\226\276Vi\213\277\267\212a\276\016\222H\276\301>C\277\306\264\003\277\027\241\221<8j\207=\207\027\306\2766_\001\277\352\353\227\2767+\337>9\221\263?57\020>\177\263m\276\335&\262>\031\030=\277\021,\311=\370\367\313?\030\304\256\276\275\237\321\276\251\370\265>\343\352\\\275\227\236\271>\313\307\346\276\250\271\360\275\366\005\006\277\3447u>c7\206\277\236\343\216\274E\017\275<\257\260\262\275\250!G>t\312M=\370G\006\277m5O\276+%7\275\014\035\266\27593\314>\253\337F\277#\374\321>\253\022D?\273Q\2629^\217*\274\210\276\364\276Eoi>\007\307\327\276.\027\275>\3731\315\276\0168\217\276\301]\205=d;\021\277\373t\235\276\3435\206\276\254J\261\276\342\342\300?\330\223P\277\310\313W>\026\177K\277\036\342\263\275\234p:\276\210\n\242\275\374\271&?\330`,?J\240\333>\217@\336>\325\0010>R~\373>H\242\244\276A:\273=\013\276^\275\223W\355\276\223\220W\276Gr ?\232s\246\276[u\263>\371\255\241\276\262]B\275-\312A?\242\303\310?w&\010?\324p4\276\203\227\r?u3\'>[\3544?K\271\014<t\365\263\276\326p%\276*\227\342>\373\034\302=\016\303o\276O\010\363\273uI_\275+=\313<\317\320E=!\272\017?Cc\200\275\253\326\273>\t\330\214=7\037\342>S\303\271\275\241\005\223\276\312\n\352\275q2\237\276:\211\322\276\231\225e\274?\331(\277\004\024}>\371\277o?\313\202\002\277J\t\026\276\025\2431\276\342\244!\275\315p\332\276\276\030\017\277\002/\247\275\274i\242>\264\312h?L\016\226\276\353.]\277b\237\272\276\016\270%?\207\220}=(Le\276\367\233{>O\321\304\276\252r\002?`\207\340\276\211P\n\276\231\274\236<\301\364\253\275`y\025>\262\321\014\277u\211U=\240\267$\276[\237 >\270\'k?\257\310\220\275[\235\337\276s)\212\277\222c\024?\014\177\035?\365\350\220?\342D\231\276\n\337\306\274\234\342\241>\253\361v>\210\203\221>n\253\223\277S\231\000\277v[\326??\231$\277\311*\226\275l\026-\275\304\n\016\277\230_4?\207\000u\275O\361\324\2755\361I\276{T\366\275\3036\302\275b\257\275?$\323#\276{T\366\275\207\000u\275\311*\226\275]\321\020\276\316\215\255\275\316\215\255\275\000\256\350\276\311*\226\275Q6\346\275O\361\324\275{T\366\275\3036\302\275Q6\346\275\3036\302\275\3036\302\275{T\366\275\234\270\035\276\316\215\255\275~~\264\276O\361\324\275\316\215\255\275\316\215\255\275\311*\226\275O\361\324\275\253q:\276\3036\302\275\3036\302\275\370\306\217\276Q6\346\275\311*\226\275\207\000u\275\316\215\255\275\311*\226\275\316\215\255\275k\203N?+\0065\276\311*\226\275{T\366\275\207\000u\275\352\363\t\276\311*\226\275\207\000u\275\316\215\255\275\311*\226\275\316\215\255\275\207\000u\275\316\215\255\275\3036\302\275\3036\302\275\316\215\255\275\311*\226\275\311*\226\275j\024\204\276O\361\324\275$\323#\276\3036\302\275\207\000u\275\316\215\255\275\206\025\016A\370\306\217\276+\0065\276l\026-\275\014\365\213\276\316\215\255\275]\321\020\276{T\366\275l\026-\275O\361\324\275\311*\226\275\234\270\035\276O\361\324\275\227\240\234\276\\\340\215\276\3036\302\275O\361\324\275\207\000u\275\234\270\035\276\311*\226\275\223\213\257\276\352\363\t\276\316\215\255\275\316\215\255\275\361\272)\276\3036\302\275O\361\324\275\316\215\255\275Q6\346\275l\026-\275\316\215\255\275\352\363\t\276{T\366\275l\026-\2754\301\002\276\340\272?\276\311*\226\275\316\215\255\275\352\363\t\276\234\270\035\276\361\272)\276\311*\226\275\311*\226\275\311*\226\275Q6\346\275\316\215\255\2754\301\002\276;\002\221?\316\215\255\275\3036\302\275O\361\324\275Q6\346\275\311*\226\275\3036\302\275+u/\276\311*\226\275]\321\020\276\354\266\300@\3036\302\275\3036\302\275\3036\302\275p\331\332>.i=\276\340\234\215>\277[i@\355\033\373>r7\245>_\330\230>\312\3226>e\336<\276\327D}\276\001\365\234>\320\203\342\275\0135K\277P\245}\273k\031M?\350\021\003?\320\0133>\036\030B\276\330!\371>.\333\336>V\2250>P\240\323=r:\236\275\313*\367>`N\337>R\247\034\274Y\251\240>\364\235\342>\370\030_>.\213\221>o\261\r?\267\346@\276C\353&>\265s\232=\206\375*@Gk\335>\230`\273\276\374\370$\300\343\222\331=E\335\223>\245h\250>`\224\375=\316\365\236\275\302}\n?\354\346R\276S\0339?\315\317\330>\021\302\021?\332wh\276`N\337>\263I\035?\361\023\346>\322Y\327>\223\314 >\330\202_>\225J\211\275\030\226\361>\214z\366=\322\331\200\300,^\323>o\314\272=\330!\371>\323\302\001?\351\005\001?\243u\324;b\350\371=FL[>\264\376]>\317x\265>\220d\020\277\266u \277\320\212\345>\212\341+\300a\307\322>P\337\035?J\353)>\232\342\336\275y\302\232=\254\016\305>\212p\314>\252C\177>\370\212\327=\312\177\305=\005\263\215\276\243\257\272>\340\232\256\276?\265\271\276\311\020\244>\3778\267><D\314?r\375\342>\240\340l\277\247v\021\277\362\302\020\300\310\035O\277\261\2303\277,:\010>3\036\213>\312\237\223\277t\357\227\274F\260S?6\000\212\276\200 \347\275\023\000\223>\237^\207\277>\3132>\020\347\241\277\2058\032\277\270\362A?\366\376\254?8t\305\275%\276A\277\024\217\230>J\311O>\222qV\277\301N\266>0\316I\276\221\261\034?\262\216\246\276of\350=;\255\020\277\257\"\322\276\304\263\275>`\003\310>\373\337\n\276\204\276\374=\342\342\221>{\322\026\277\204\316\234>W\374p\277\313\313F\277dS\001?e\271\332>)_\247\275\027\001\021\277Y\361\205\276\233\377\350>v3\201\276\335\276\225<L+\201\275\331%\222\276\250*9\276.\010\200\276:\2334\276sG\217>o\315\031>nj\350\276\337\201\237\276\214\244\260\276\"\273\n>C\305\237\276\351\216\003\277\207\266\032<;\335\036?\300\242\324\276\036}\365\275\312\354\234?\000\360;\277\334\3451\277\336\370\267\276\245\247\224\276q\\\345\276\245\305\256\276 \315\030\277i|\212?\333\010{>\304\376\031?)\253P?W\347$?\237\256g\277\272\244E?4\255\352>\226\357\266\277\246\320\252?}|\007=u\025\225?\333\274\237\276L.\034\276\034\365\275\276d[I?\216\013F\277N[\276\276Gs3\27716\263\276\324\"\263\276\244\005\275\276Y\252\311\274`<u\277\2714\251?W\247\216?\363\214\243\276~{Y\277%\375a>F\\b=\027\246f>x6\342=T]\033\277z\002\315>L\353\233>\241\3562\277v\306\255\276\242\247\374\276\335\nK?\275\365\r\277\027\177T\276$\371\304\276P}\325<\255\363\246\276\257\247\362\275\t\020g\276\374\330P\275\376x\211>G!\021\277\2500\005?\367\023\310\276b\311\365\276&D\007>\234\360\020\277|\213\207=\237\363\031?\335$\031\277\260`\372\276\271\030\007?\032\357N\276$\206\233\276p\253\232\277c\356\313>\266\224\033\276q\274\004\277\200G_\276l\177c\275\263X\251?\234\034\344>\267\0165?\350N\014\277\332e\222\277\265.w\276\026\260\007=\017\243=\277\363&\306\276\230_p\277$\022%>\225-\005>1\200L>TP\205>\033MV>\261\355??\366\335f\277\\c\344\275\033\265\365\2769e4\276\3747\335>\251pZ\277\017\245\242>W\351\242\276\351\313\002?\034\256\212>\227h\224\276\357Y\n?\0262\327> \365U?b\373h?\333\370\217?9\216\325\276{~\225\276%\201]?S\231\000\277\343\227\030\277\004\271\306?\311*\226\275l\026-\275\304\n\016\277\332W\265\277\207\000u\275O\361\324\2755\361I\276{T\366\275\3036\302\275\345p,\277$\323#\276{T\366\275\207\000u\275\311*\226\275]\321\020\276\316\215\255\275\316\215\255\275\313\223\014@\311*\226\275Q6\346\275O\361\324\275{T\366\275\3036\302\275Q6\346\275\3036\302\275\3036\302\275{T\366\275\234\270\035\276\316\215\255\275~~\264\276O\361\324\275\316\215\255\275\316\215\255\275\311*\226\275O\361\324\275\253q:\276\3036\302\275\3036\302\275\370\306\217\276Q6\346\275\311*\226\275\207\000u\275\316\215\255\275\311*\226\275\316\215\255\275k\203N?+\0065\276\311*\226\275{T\366\275\207\000u\275\352\363\t\276\311*\226\275\207\000u\275\316\215\255\275\311*\226\275\316\215\255\275\207\000u\275\316\215\255\275\3036\302\275\3036\302\275\316\215\255\275\311*\226\275\311*\226\275j\024\204\276O\361\324\275$\323#\276\3036\302\275\207\000u\275\316\215\255\275Q6\346\275\370\306\217\276+\0065\276l\026-\275\014\365\213\276\316\215\255\275]\321\020\276{T\366\275l\026-\275O\361\324\275\311*\226\275\234\270\035\276O\361\324\275\227\240\234\276\\\340\215\276\3036\302\275O\361\324\275\207\000u\275\234\270\035\276\311*\226\275\223\213\257\276\352\363\t\276\316\215\255\275\316\215\255\275\361\272)\276\3036\302\275O\361\324\275\316\215\255\275Q6\346\275l\026-\275\316\215\255\275\352\363\t\276{T\366\275l\026-\2754\301\002\276\340\272?\276\311*\226\275\316\215\255\275\352\363\t\276\234\270\035\276\361\272)\276\311*\226\275\311*\226\275\311*\226\275Q6\346\275\316\215\255\2754\301\002\276\261\221a\277\316\215\255\275\3036\302\275O\361\324\275Q6\346\275\311*\226\275\3036\302\275+u/\276\311*\226\275]\321\020\276\361\272)\276\3036\302\275\3036\302\275\3036\302\275p\331\332>.i=\276\340\234\215>\261\217\037>\355\033\373>r7\245>_\330\230>\312\3226>e\336<\276\327D}\276\2068\233\277\320\203\342\275\032\242\202?P\245}\273\365\315\262\276\260\325\223\277\320\0133>\036\030B\276\330!\371>.\333\336>V\2250>P\240\323=r:\236\275\313*\367>`N\337>R\247\034\274Y\251\240>\364\235\342>\370\030_>.\213\221>W\325f\277\267\346@\276C\353&>\265s\232=\262\357j?Gk\335>\230`\273\276\214\000\'\275\343\222\331=E\335\223>\245h\250>`\224\375=\316\365\236\275\255Uc\277\354\346R\276S\0339?\315\317\330>\006\312\245\277\332wh\276`N\337>\224\r\222\277aQ\251\277\322Y\327>\223\314 >\330\202_>\225J\211\275\030\226\361>\214z\366=\316\254\034>,^\323>o\314\272=\330!\371>\323\302\001?\261\242\256\277\243u\324;b\350\371=FL[>\264\376]>\317x\265>s\263\254\276Q\037\313\276[\371\020=\231.\021>a\307\322>P\337\035?J\353)>\232\342\336\275y\302\232=\233o\320\276\212p\314>\252C\177>\370\212\327=\312\177\305=\005\263\215\276$\302\246\277\340\232\256\276?\265\271\276\311\020\244>x{\177>\337CN?`\334\\\277t\335\354\276\033$\260\276\201\216\224>\310\271\217>U\314\264=\277\'\312>k\253\246\275g\343\367>\341\306\020\276\200x\032\277\234\2574\277G\232\202\276\221\231\324\275\345v\262\276\\\332=\276\366\002\311=\351\tJ\274\023\301\005\277\003\372\002\276Wb\215?\325\345\377\276>\026\247>\004r\333\276\377\007\304\276\302\215\006\277\347|\376\276\221s\347\276 \0234?iO\266>=\226-\277\373\237s?c\260:?~\220.?\206^\244?\000\276\375\275[\227O?\001\272 \276:\326\311>\337\331\260?\236\010\275\276\323N\336>\213\352\235=\304\350\251\277\276_f\276IQ3\275\\8N\274\2070M?\356\367O\277\273\250\034?\313\313\226\276\336\236\342\276\317\234\304\276\344\017}\276\213\301A?>\227\013?\216v\257\276ye:?\360\211e?$5\031\277`4\246?\337G\025\275\306\233\377>6\377\340=Tl\203\274Y5i?\353v\033\277H\256E\277\007\266\006\277\305\205\003>\345\253\234\276\000\247!\276+\212c\276/\'\316>\223\221\204>\220\341\217\276\212D\337\275//?\277\343\311O\276\265\306\000\277\340G\177\277\001x\250\277\256#\237>\261\311\254\276\222\216>\277\253\3112\277t\260\t\276\366>\304>\203\225,?\266e.?\\\335\306=6\346\244>\370,\376?hy\031?n\220\024?\\x\263\276\001a^>\347Uu=\213\355\232\275\263\322\345\275\254\237\264>`\2573?\222\332\210\275u\262\205\277\347\334&?\3675\016?\030&\037?\\\236\007?j\335 ?\006\265\034?\211d#\275\007\223\267?\342\225\260>\317\017t=\004\3408\277oo\312>\230w\003>\255\227\007>\333\364\273?2\004\325>\304)B\276\242\031j>\305g\210=\261Q\034\276\372U@?8\236\200?\324\207X\277\220\220\023\277\347KT\277\312\331N>K,\243>\207\206C\277H7\242\275\'\273&\277\301\225\315\276\367I`\277\n\256Q\276B\030\014\277\332\236^\276S\313\346>\3127~\276\365cl\277_{\237\277y\212\357\276\240\353F\2768_{\276G\320\356\276au|\276o\352\251\276\270\237>\277\204\265[\276\271\244V?~Y\260\273\367c\240?\rR\274\275\356\200/\276\301\262\223\277dA\214\275\352\"\"\276(o\235\277\346\204\314\275\007;\206<\377F\206>\313\364\017>\203/\220\2768i\327=x\350\310\276 )\224>\306\307\010>\246f\n\277\360\245\212\276\264d\315>\315\316\263?\334N\036\276\313\256\260\277%\201]?LZ\376?\343\227\030\277?\231$\277\311*\226\275l\026-\275\304\n\016\277\230_4?\207\000u\275O\361\324\2755\361I\276{T\366\275\3036\302\275b\257\275?$\323#\276{T\366\275\207\000u\275\311*\226\275]\321\020\276\316\215\255\275\316\215\255\275\000\256\350\276\311*\226\275\206\025\016AO\361\324\275{T\366\275\3036\302\275Q6\346\275\3036\302\275\3036\302\275{T\366\275\234\270\035\276\316\215\255\275~~\264\276O\361\324\275\316\215\255\275\316\215\255\275\311*\226\275O\361\324\275\253q:\276\3036\302\275\3036\302\275\370\306\217\276Q6\346\275\311*\226\275\207\000u\275\316\215\255\275\311*\226\275\316\215\255\275k\203N?+\0065\276\311*\226\275{T\366\275\207\000u\275\352\363\t\276\311*\226\275\207\000u\275\316\215\255\275\311*\226\275\316\215\255\275\207\000u\275\316\215\255\275\3036\302\275\3036\302\275\316\215\255\275\311*\226\275\311*\226\275j\024\204\276O\361\324\275$\323#\276\3036\302\275\207\000u\275\316\215\255\275Q6\346\275\370\306\217\276+\0065\276l\026-\275\014\365\213\276\316\215\255\275]\321\020\276{T\366\275l\026-\275O\361\324\275\311*\226\275\234\270\035\276O\361\324\275\227\240\234\276\\\340\215\276\3036\302\275O\361\324\275\207\000u\275\234\270\035\276\311*\226\275\223\213\257\276\352\363\t\276\316\215\255\275\316\215\255\275\361\272)\276\3036\302\275O\361\324\275\316\215\255\275Q6\346\275l\026-\275\316\215\255\275\352\363\t\276{T\366\275l\026-\2754\301\002\276\340\272?\276\311*\226\275\316\215\255\275\352\363\t\276\234\270\035\276\361\272)\276\311*\226\275\311*\226\275\311*\226\275Q6\346\275\316\215\255\275\277(\372@;\002\221?\316\215\255\275\3036\302\275O\361\324\275Q6\346\275\311*\226\275\3036\302\275+u/\276\311*\226\275]\321\020\276\361\272)\276\3036\302\275\3036\302\275\3036\302\275p\331\332>\356:e@\340\234\215>\261\217\037>\355\033\373>r7\245>_\330\230>\312\3226>\212\006i@\020\226P@\001\365\234>\320\203\342\275\0135K\277P\245}\273\365\315\262\276\350\021\003?\320\0133>\375:b@\330!\371>.\333\336>V\2250>P\240\323=r:\236\275\313*\367>`N\337>R\247\034\274Y\251\240>\364\235\342>\370\030_>.\213\221>o\261\r?\005\327`@C\353&>\265s\232=\266\026V\277Gk\335>\230`\273\276\214\000\'\275\343\222\331=E\335\223>\245h\250>`\224\375=\316\365\236\275\302}\n?\354\346R\276S\0339?\315\317\330>\021\302\021?\332wh\276`N\337>\263I\035?\361\023\346>\322Y\327>TH\022\300\330\202_>\225J\211\275\030\226\361>\341\010\r\300\316\254\034>,^\323>o\314\272=\330!\371>\323\302\001?\351\005\001?\243u\324;b\350\371=FL[>\264\376]>\317x\265>\220d\020\277\266u \277\004o\251\277\231.\021>a\307\322>P\337\035?J\353)>\232\342\336\275y\302\232=\254\016\305>\212p\314>\252C\177>\370\212\327=\312\177\305=\005\263\215\276\243\257\272>\340\232\256\276?\265\271\276\311\020\244>\211\246\261\277W\250\260>\233N\310\277\310\266\334=\365\275\242\277\005\242\350>\"e\252\277Ex\300>;@\201\274\352&;>\351\2106?\360\3138\277\350\231W\277L)]>S\017\005@\302G\353>A\210\204>\300oV\277\230\337\002?\373+\316>v \345\275\2225\276\2767\024G>dt%>\256b\354\276\346\355\332=\232\255R\274\246V_>t\"\236\277\365bk\276\2776\210\277\222{\327\275\237g\327=\233@H>\232\374s\277p~\004>\033lA>\316}p\277Zc\217\276\233\206\357\276z9>\277M\001\210\277\214\031t\275PE\024\277\250I\207\277\214\373\217\277\000\210\007\276\267\306q?\273\031w?\360n\203\276\021\037i\275\363\024\016?<a\032?\230\031C\276\315\210\254\2741\370\367\276*\231\253<\364\350\252\277f!\203\276\253\227\246\277\273\246\332\276M\222\247?\251Z\022\2765\023\213\276\345\\\272\275\351o\357\273\n\240\363\276\2678s>?J2\277\202\017\037?\370.\251>\245]f\276\366\375\225\276\227F`>\313;\211\276T!\231\276\264\277\273\276\225\235\201\277U\256\221=Y\'\250\276G\364N\277\345\243\237>\220\240H\277(\356\372\276\2027\254?\332\302\202\277\222Q\315\276In\213\277\377\235\203=v\201\302\275\247\375+\276\253;O\274\231\212\013?;\333\220>\212\323l\276\261\362\251\276\322\373j>\032T\270\276\024\272\246\276\204\210\270?\261\267\312\277\232}\226\277\321\377\200?Q\265M>%\354.?%m\313=\264S\305\276\3317\246\276\315Q\307\275l?s\277\3754\247\277\232\336\206?z\206\020\276\346\3542?K`\333\276$\344?\277\321\330\225>\256\355\212>\267_\022=BaS?MA/\277|g\313>\234\032M\277\030\310\231?\023m\332>\301\312\261=\342\323\027?\346\201\'>\362\220\004?\351\000\302?]4\252?\330y\006\276\3151\212?\246G\227\277HV\234>\036\002\221?B\205\253?\270\336\303?\006\324/\277}\033_?\302\336\004\277\215\212\261\2773<\223\277!\3750\276\357c;\277\216P\222\276\334\312h?\323\030\223>\322\301\340>\tl\240=\222x\016?\315\361\262>\271g9>\034C\246\276\376e4?\210k\221\276\355\356\215\277\245\306\235\276\'\307\265\275\030\214\267\275\006\nh?\370\233\376\276\013\357\004\276XB\312>\222S\263\274G\017\210\276.\377<?.!{\277\221\"\310\275\276\364S?fr\236\276\212\232\036\277v\272X>y\020Q\277vFK\277\217\242X?\223\261\034\277%\201]?S\231\000\277v[\326??\231$\277\311*\226\275l\026-\275\304\n\016\277\230_4?\207\000u\275O\361\324\2755\361I\276{T\366\275\3036\302\275b\257\275?$\323#\276{T\366\275\207\000u\275\311*\226\275]\321\020\276\316\215\255\275\316\215\255\275\000\256\350\276\311*\226\275Q6\346\275O\361\324\275{T\366\275\3036\302\275Q6\346\275\3036\302\275\3036\302\275{T\366\275\234\270\035\276\316\215\255\275~~\264\276O\361\324\275\316\215\255\275\316\215\255\275\311*\226\275O\361\324\275\253q:\276\3036\302\275\3036\302\275\370\306\217\276Q6\346\275\311*\226\275\207\000u\275\316\215\255\275\311*\226\275\316\215\255\275k\203N?+\0065\276\311*\226\275{T\366\275\207\000u\275\352\363\t\276\311*\226\275\207\000u\275\316\215\255\275\311*\226\275\316\215\255\275\207\000u\275\316\215\255\275\3036\302\275\3036\302\275\316\215\255\275\311*\226\275\311*\226\275j\024\204\276O\361\324\275$\323#\276\3036\302\275\207\000u\275\316\215\255\275Q6\346\275\370\306\217\276+\0065\276l\026-\275\014\365\213\276\316\215\255\275]\321\020\276{T\366\275l\026-\275O\361\324\275\311*\226\275\234\270\035\276O\361\324\275\227\240\234\276\\\340\215\276\3036\302\275O\361\324\275\207\000u\275\234\270\035\276\311*\226\275\223\213\257\276\352\363\t\276\316\215\255\275\316\215\255\275\361\272)\276\3036\302\275O\361\324\275\316\215\255\275Q6\346\275l\026-\275\316\215\255\275\352\363\t\276{T\366\275l\026-\2754\301\002\276\340\272?\276\311*\226\275\316\215\255\275\352\363\t\276\234\270\035\276\361\272)\276\311*\226\275\311*\226\275\311*\226\275Q6\346\275\316\215\255\2754\301\002\276;\002\221?\316\215\255\275\3036\302\275O\361\324\275Q6\346\275\311*\226\275\3036\302\275+u/\276\311*\226\275]\321\020\276\361\272)\276\3036\302\275\3036\302\275\3036\302\275p\331\332>\356:e@\340\234\215>\261\217\037>\355\033\373>r7\245>_\330\230>\312\3226>\212\006i@\327D}\276\001\365\234>\320\203\342\275\0135K\277P\245}\273\365\315\262\276\350\021\003?\320\0133>\375:b@\330!\371>.\333\336>V\2250>P\240\323=r:\236\275\313*\367>`N\337>R\247\034\274Y\251\240>\364\235\342>\370\030_>.\213\221>W\325f\277\005\327`@C\353&>\265s\232=\262\357j?Gk\335>\310`A@\214\000\'\275\343\222\331=E\335\223>\245h\250>`\224\375=\316\365\236\275\255Uc\277\354\346R\276S\0339?\315\317\330>\021\302\021?\210t?@`N\337>\263I\035?\361\023\346>\322Y\327>\223\314 >\330\202_>\225J\211\275\030\226\361>\214z\366=\316\254\034>,^\323>o\314\272=\330!\371>\323\302\001?\351\005\001?\243u\324;b\350\371=FL[>\264\376]>\317x\265>\220d\020\277~\224\247\276\310\343\026\300\231.\021>a\307\322>P\337\035?J\353)>\232\342\336\275y\302\232=\254\016\305>\212p\314>\252C\177>\370\212\327=\312\177\305=\005\263\215\276\243\257\272>\340\232\256\276?\265\271\276\311\020\244>m\371G>X\277\300=\003B\241?\206\"\311\277\341\254u>\322\213\241\276,\272\212\277\377\325\274\276V0(\275~SL?Z\273\326={\177\203\276\356\222]?\210\177j?\377\204+=n\332\262\276\304\2347\277O\262\241?\034\364a=\001\330,\274\376\236&>\243\231\323?\005\247\214\276\253r\267\276\371&\350\276,\315\203\276\375\220\202\277\\\360\366\276\024\204\022\2778\211\237>\270\007o\277+9\224\277\220\304\265\276\207~\341\275\211C\235\275\376\335\206\276\007\320\351>\353\325\006?Pt\277\275\251\023\202\277\022\360\240\276g\331\265>\333\301C\277Rb\362\276\224z\032\275x63?\317\036$\277~\372\232?C6\201>\326\3122\275-7\027?\361\277\022\277\206\260\235\276\377\300 \276=)\222\276>z\254\275\303J\273\276\203\317\225\277Y\323\217>\224\357.\277\366\247M>mJ4\277\005\263K\277q\352\200\277>\2377\277{\205\355\276\330\3151=\277m\333\276\355)\306?L\226+?\350{2>\326\231\031\277nV\256\276p\317\300\276\223\261\301\2756\311!\277\331\2074?H<\311>\002\341\241?\276\231\240>\0176\273?zw<\277\361\266\235?\260\313\260?r;\261?\376\225\307?\310\240\037?\277H\004=\230\027\022\277\230C|\276\376v\337=\222\201\305\2768\032h>R\212,\277\264\020m\277w\247\276\276\022\245H\277P\016\337\276\234\341,\277\202\320\202?\375g\270?\251\222\312?7\247\003?\3263\375\2767\364\252>\007\276\032?Z~\330=\272\321\226>\203\230\323>\014\262`?C.\377\275\232\352\026\277d\240\013?A\245\007\277\270\232\252?d<\203\277E]\313\276\026I\215\275\322\273\217\276\217\377\177\277\252P]\277oO\n\276\033[3\277\215\247\013\276\002\004z\276>\317\017\277\034`\215>A\311n>\010\276\317=\274\376\207\277\337\271n?\266f(\276\363\036\242\277~\260\n?\251%\364\276\360\tE\2779g\035?@\216=?\322\235\n>\001o\255\276+O\353\275;$\201\276\224\r\372>\016m\336?DG\322\276)\200\177?V\254\327>7-\031\277\034\372\254\276.\354C\276\216\314\245>\273\222\275>\034\244C\276\261\2648?\n\245\373\276T\210d?\225\225m\276eH\025\277\255:\306\275\345\256\201\277\213o\217\2763\211\345=\220\375\223>\333\027)>\241_\330>\234\375\036\276~p\033>C\211\022\277\020?\260\276b,\347=\031\342\342\276o\227\203\275P\212\r\274\001\2677?\333\237\035?O\021\205\277\224\334M\277n\253\223\277S\231\000\277\343\227\030\277\004\271\306?\311*\226\275l\026-\275\304\n\016\277\230_4?\207\000u\275O\361\324\2755\361I\276{T\366\275\3036\302\275\345p,\277$\323#\276{T\366\275\207\000u\275\311*\226\275]\321\020\276\316\215\255\275\316\215\255\275\000\256\350\276\311*\226\275Q6\346\275O\361\324\275{T\366\275\3036\302\275Q6\346\275\3036\302\275\3036\302\275{T\366\275\234\270\035\276\316\215\255\275~~\264\276O\361\324\275\316\215\255\275\316\215\255\275\311*\226\275O\361\324\275\253q:\276\3036\302\275\3036\302\275\370\306\217\276Q6\346\275\311*\226\275\207\000u\275\316\215\255\275\311*\226\275\316\215\255\275k\203N?+\0065\276\311*\226\275{T\366\275\207\000u\275\352\363\t\276\311*\226\275\207\000u\275\316\215\255\275\311*\226\275\316\215\255\275\207\000u\275\316\215\255\275\3036\302\275\3036\302\275\316\215\255\275\311*\226\275\311*\226\275j\024\204\276O\361\324\275$\323#\276\3036\302\275\207\000u\275\316\215\255\275Q6\346\275\370\306\217\276+\0065\276l\026-\275\014\365\213\276\316\215\255\275]\321\020\276\212\311\004Al\026-\275O\361\324\275\311*\226\275\234\270\035\276O\361\324\275\227\240\234\276\\\340\215\276\3036\302\275O\361\324\275\207\000u\275\234\270\035\276\311*\226\275\223\213\257\276\352\363\t\276\316\215\255\275\316\215\255\275\361\272)\276\3036\302\275O\361\324\275\316\215\255\275Q6\346\275l\026-\275\316\215\255\275\352\363\t\276{T\366\275l\026-\2754\301\002\276\340\272?\276\311*\226\275\316\215\255\275\352\363\t\276\234\270\035\276\361\272)\276\311*\226\275\311*\226\275\017\322YAQ6\346\275\316\215\255\2754\301\002\276;\002\221?\316\215\255\275\3036\302\275O\361\324\275Q6\346\275\311*\226\275\3036\302\275+u/\276\311*\226\275]\321\020\276\361\272)\276\3036\302\275\3036\302\275\3036\302\275p\331\332>.i=\276U\355\210\300\261\217\037>\355\033\373>r7\245>_\330\230>\274\203!\300e\336<\276\327D}\276\001\365\234>\223[\324\277\0135K\277P\245}\273\365\315\262\276\350\021\003?\320\0133>\036\030B\276\330!\371>\363\205\346\277M\244 \300P\240\323=r:\236\275\313*\367>>\352\361\277\252\363+\300Y\251\240>\364\235\342>\016\007\000\300.\213\221>o\261\r?\267\346@\276U\232&\300G\304\367\277\266\026V\277\201\253\347\277\310`A@\214\000\'\275\343\222\331=E\335\223>\245h\250>`\224\375=\316\365\236\275\302}\n?\210\3308\300S\0339?\274a\363\277\006\312\245\277\210t?@>\352\361\277\224\r\222\277aQ\251\277\036\253\364\277TH\022\300\330\202_>\225J\211\275\030\226\361>\341\010\r\300\316\254\034>Z\373\344\277o\314\272=\330!\371>\323\302\001?\317p\352\276\312\307\362\277b\350\371=FL[>c\244\374\276\233 \232\277\220d\020\277\266u \277\262\307\345\277\231.\021>a\307\322>P\337\035?J\353)>\232\342\336\275\275\362 \300sX\206\277\212p\314>\252C\177>\370\212\327=\312\177\305=\005\263\215\276\243\257\272>\340\232\256\276?\265\271\276\311\020\244>\340\t\222>\213\022E>Lp\351?37\257\277\245i\277?\212\'\233;L\360\366>M)\261\274\244X\014\277d}\212>\036\331\321\275\340b+=u\207`?\032[\216>\360\263\016\277\234\205Y\276D\032\205\277\241\316E?a\023\255\277\224)]\277w|\\>\367M\007@\337\036\024>\224\234D\277\331\361Y> 9,\277\207\315\261\277\314\310H\277\204\026X\277!\020H?\253H\207\276\006@\032\277D\036.?X\315(>\322\003\261=\2173\250>5B\201\277\263\310.\273\201\366\032\277\271\035M\277\306\005\270\275\314(@\277\354o\340\277\345\247$\276>5L?\327\366\320?\352>\365\276\026\203A\277\316\362\207>\263\345\314\275w?\246\276Q\310$>\266LQ\277\025\203#\275\226\356\346\276jy\254\275Y\004;>\222\014\216?\263\331O>/\355\204\277A\234y\274\002h\177\277\222\n\004\300\2528\210\276\265\0003\277\266\021o>:w\251\274\177\306%>\265\017\325?\331\376T\277\027z<\277\\(Q\277W\235\324\276\305<r\274\256/\207?\222\375\211\272\215\256\210?\230@\225?\003\362\245?\364\355(?\371\336\"?\303\334\335\276p\034\330?\314X\'?\370b\202\277\264_\010@\331\257\037\277k\375,?\034\244u\277\004z5\277,\214\351\276\025\243\336>&\036\214\277\373\006\005\300\216Rt\275\237|Q\277(C\023\277\356\3061\276\003zA\277\232\341\234\277(\225\335?\036%\356?\322<\205>\006o\036\277\253\377\240\276\241E\274>\352\301\344\276\240\323\240\276\276,\017\277{\271[>\266O:=\305\265\223\277\t[\235\276\314\222\223\277\236\020\255?\350\016S\277\202\265a\276|Z\213\2756`\263=\207\225\250\277]\274~\277\246l\311=\256er?\242\033\353>\376C \277e\'\347\275\206dU\277\0305\032\277Z\027-?\256\315\250\277L\344\'>\206\334\301\276\266\305\351\276ZHa?^\312&?I]\324\276|!\242\275\311\263\367\275\276uv?\321\203-\277^\272^\276\240\202T\276F;\360\275\013s\315?\257G\275\276^\272\222?\213\315\327\277\314}\344\277\232*\302\275(zI\276\356K\202\277\227\300\307>8v\335\274\263\252\304\276=\n\005\277\354\334\227?\260\217\025?o\2209>\037J\t?b\270\225\277J\346\236\277\013\267\330\276v\n\025?F\212{>\206To\275\251\213\212>\020\346\330>\210\022\350=\377\374.?\227\006\343\277d\233r>\225\241A>\336\362a>8{\244?6.\240?\302\226,\277u\347\217\277%\201]?S\231\000\277\343\227\030\277\004\271\306?\311*\226\275l\026-\275\304\n\016\277\332W\265\277\207\000u\275O\361\324\275x\371\241@{T\366\275\3036\302\275\345p,\277$\323#\276{T\366\275\207\000u\275\311*\226\275]\321\020\276\316\215\255\275\316\215\255\275\313\223\014@\311*\226\275Q6\346\275O\361\324\275{T\366\275\3036\302\275Q6\346\275\3036\302\275\3036\302\275{T\366\275\234\270\035\276\316\215\255\275~~\264\276O\361\324\275\316\215\255\275\316\215\255\275\311*\226\275O\361\324\275\253q:\276\3036\302\275\3036\302\275\370\306\217\276Q6\346\275\311*\226\275\207\000u\275\316\215\255\275\311*\226\275\316\215\255\275k\203N?+\0065\276\311*\226\275{T\366\275\207\000u\275\352\363\t\276\311*\226\275\207\000u\275\316\215\255\275\311*\226\275\316\215\255\275\207\000u\275\316\215\255\275\3036\302\275\3036\302\275\316\215\255\275\311*\226\275\311*\226\275j\024\204\276O\361\324\275$\323#\276\3036\302\275\207\000u\275\316\215\255\275Q6\346\275\370\306\217\276\373\260\264@l\026-\275\014\365\213\276\316\215\255\275]\321\020\276{T\366\275l\026-\275O\361\324\275\311*\226\275\234\270\035\276O\361\324\275\037\326P@\\\340\215\276\3036\302\275O\361\324\275\207\000u\275\234\270\035\276\311*\226\275\223\213\257\276\352\363\t\276\316\215\255\275\316\215\255\275\361\272)\276\3036\302\275O\361\324\275\316\215\255\275Q6\346\275l\026-\275\316\215\255\275\352\363\t\276{T\366\275l\026-\2754\301\002\276\340\272?\276\311*\226\275\316\215\255\275\352\363\t\276\234\270\035\276\361\272)\276\311*\226\275\311*\226\275\311*\226\275Q6\346\275\316\215\255\2754\301\002\276\261\221a\277\316\215\255\275\3036\302\275O\361\324\275Q6\346\275\311*\226\275\3036\302\275+u/\276\311*\226\275]\321\020\276\361\272)\276\3036\302\275\3036\302\275\3036\302\275p\331\332>.i=\276\340\234\215>\261\217\037>\355\033\373>\244\371\013\300_\330\230>\312\3226>e\336<\276\327D}\276\2068\233\277\320\203\342\275\0135K\277P\245}\273k\031M?\260\325\223\277\320\0133>\036\030B\276\330!\371>.\333\336>V\2250>E\215\002\300\002\000\327\277\313*\367>`N\337>R\247\034\274Y\251\240>\364\235\342>\370\030_>.\213\221>W\325f\277\267\346@\276C\353&>\265s\232=\266\026V\277Gk\335>\230`\273\276\214\000\'\275\343\222\331=E\335\223>\'A\n\300`\224\375=\227\376\327\277\255Uc\277\354\346R\276S\0339?\315\317\330>\021\302\021?\332wh\276`N\337>\224\r\222\277aQ\251\277\322Y\327>\223\314 >\330\202_>\225J\211\275\030\226\361>\214z\366=\316\254\034>,^\323>{r;@\330!\371>\323\302\001?\205\200\371\277\243u\324;z\322\035\277\250\371\003\277\264\376]>\317x\265>\220d\020\277\266u \277\320\212\345>\231.\021>a\307\322>P\337\035?J\353)>\232\342\336\275y\302\232=\254\016\305>\212p\314>e\022\221\300\370\212\327=\312\177\305=%\264N\300X\340\345\277\340\232\256\276?\265\271\276\202\341W?\204\240\377>\001b\273>}\302\260\277\212D\233=}\031=\277\253]\002@#p\274\277\3110s=\212\315_>S\316b>\216\307p>\005\337\353\276\364\345%\277\332\033-\277\032\037\334\276X\306f\277\345\372\264>\222h(\277\0236\272?\007\360\353?\343\231\317>\250$\007\277\374\322\000@\365#\302\277\224\000\264\276\341\316\205>f\017\210\277%\314(@\024\302\311\277\333\002\303?Q\254\212\277T_\021?\322(\264=yY\307\276@*\254\277/S\300\275\230\3755>@B\242\277k+\254>\374\202\007\2775NZ\277f\327w\275\032\344+\276]\364\004\277}Hu\276v`\036\277\332g\371\275\364\207\261?\024\376\002\276%\221c\276\255\214\016\277\005\261{?\374d\210>\365\271\272=\361\tT=\320\254\004\277\265\320\003\276*2s\277Hg\357\276\352\363p\277Q\246\274\276G\277@?u@5>%0\272\275\031\373\277=\371\326\216\276f\007\335\276\232hJ\275\220\220t\277a\307\276>\350\352\254?\334_\274\276\002\211\216\275\233\021\000>n\t\004\277\235\257\330\276\336\353\033\276\242\362|\277\320\205\210>I\362u>d\221\204\277=s\230\2773\363\270\277\031Y\214<\004\233\t?#g\266\277o\225\222?\272H\237\277\322w\336>\241\323\314\276\224\311\020\277\251\004\361\276\357\016n;\303\005\235?\365&5?O_\307>d\305\220\275r\014\002\277a\203-\277\326\025]=\363xc>-5=\277\363H\246?\334\332)?\335\210\201?\303\r\036?\216\254\221?\363\203l?\2011\300?m\0270?\303\006S\277\371oa>c\314\006\275\363\373\332>\201\211\007\277\337o\250\274\030Uv\276[u\033>\034\241\271\275,\345\000\277\226 F\277\017\216`=\321\264\276<\343\256B?\262\023\207>\274\355\334\274\264\201\010\277\020:\330\276t\325\005\276H\375\"?\034\260a<\240\035\034@|>\277>\257\206\245\277\210e\026=\255\227\273>N\236\203?\320\'\200?\266.\237\277\321\263\230\276\324l\206@.\224n\277\2744\242\277\177K\351\276\245\036U\277\224\025\351<\"\265\324?`\024v>L\r\n?\313\002i\276D\365p?i\022\355\275.\t\327\276\317\013\215\275\262\376\263=\216\016\363>\311N\203\277\206#\267?\177\375\241\276!R\334\276\233\333\216>@_E\277Q\351G\275\246EH\277>\216\021\276\354\301\326=\253\371\005>\267V\214\277\377U\372\276\315R\370<\237\356\005\277\217\345M\277?/\343\275@\341\036\277D0\005\277\251LT?p{;?n\253\223\277S\231\000\277v[\326??\231$\277\311*\226\275l\026-\275\304\n\016\277\230_4?\207\000u\275O\361\324\2755\361I\276{T\366\275\3036\302\275\345p,\277$\323#\276{T\366\275\207\000u\275\311*\226\275]\321\020\276\316\215\255\275\316\215\255\275\000\256\350\276\311*\226\275Q6\346\275O\361\324\275{T\366\275\3036\302\275Q6\346\275\3036\302\275\3036\302\275{T\366\275\234\270\035\276\316\215\255\275~~\264\276O\361\324\275\316\215\255\275\316\215\255\275\311*\226\275O\361\324\275\253q:\276\3036\302\275\3036\302\275\370\306\217\276Q6\346\275\311*\226\275\207\000u\275\316\215\255\275\311*\226\275\316\215\255\275\243c\236\277+\0065\276\311*\226\275{T\366\275\207\000u\275\352\363\t\276\311*\226\275\207\000u\275\316\215\255\275\311*\226\275\316\215\255\275\207\000u\275\316\215\255\275\3036\302\275\3036\302\275\316\215\255\275\311*\226\275\311*\226\275j\024\204\276O\361\324\275$\323#\276\3036\302\275\207\000u\275\316\215\255\275Q6\346\275L\200c@+\0065\276l\026-\275\014\365\213\276\316\215\255\275]\321\020\276{T\366\275l\026-\275O\361\324\275\311*\226\275\234\270\035\276O\361\324\275\227\240\234\276\\\340\215\276\3036\302\275O\361\324\275\207\000u\275\234\270\035\276\311*\226\275\223\213\257\276\352\363\t\276\316\215\255\275\316\215\255\275\354\266\300@\3036\302\275O\361\324\275\316\215\255\275Q6\346\275l\026-\275\316\215\255\275;\033\355@{T\366\275l\026-\2754\301\002\276\340\272?\276\311*\226\275\316\215\255\275\352\363\t\276\234\270\035\276\361\272)\276\311*\226\275\311*\226\275\311*\226\275Q6\346\275\376w<A4\301\002\276\261\221a\277\316\215\255\275\3036\302\275O\361\324\275Q6\346\275\311*\226\275\3036\302\275+u/\276\311*\226\275]\321\020\276\361\272)\276\3036\302\275\3036\302\275\3036\302\275p\331\332>.i=\276\340\234\215>\261\217\037>\232;\330\277\244\371\013\300_\330\230>\312\3226>e\336<\276\327D}\276\001\365\234>\320\203\342\275\032\242\202?P\245}\273k\031M?\350\021\003?\320\0133>\036\030B\276\330!\371>.\333\336>V\2250>P\240\323=r:\236\275\313*\367>`N\337>R\247\034\274Y\251\240>\364\235\342>\370\030_>\211\013\232\277o\261\r?\267\346@\276C\353&>\265s\232=\262\357j?Gk\335>\230`\273\276\214\000\'\275\343\222\331=E\335\223>\'A\n\300`\224\375=\316\365\236\275\302}\n?\354\346R\276\017\0248\300\315\317\330>\006\312\245\277\332wh\276`N\337>\263I\035?\361\023\346>\322Y\327>\223\314 >\330\202_>\225J\211\275\030\226\361>\214z\366=\316\254\034>,^\323>o\314\272=\330!\371>\323\302\001?\351\005\001?\243u\324;b\350\371=FL[>\264\376]>\317x\265>\000\001S>\260^\036>\320\212\345>\231.\021>u\024\363\276\217\026\316\276J\353)>\232\342\336\275y\302\232=\254\016\305>\212p\314>\252C\177>\370\212\327=\312\177\305=\005\263\215\276\243\257\272>\340\232\256\276?\265\271\276\311\020\244>\215\004\311>\200hL\277\260\010e?\314\306\207>SK\220\277E\273\224\277^\035d?\013\275\265\277%\314\005\277WS4\300x\267\356\277E\303R\276.k\217\275w\330\200\276\331I\333\276\346\235\010\300\016(\351\277\014.\214\277\032\275b?\320%D?\345Tl>\302e \276i[\333\276\271\220\005@\321\217H?\215\230\210\276\315\216\333?s3\264\277!~m?8\372\003@#C\333\2756\034\270\277\205@\360\277\014\017E=\273\345\305\276\177\263\363\276AG\303?\354m7<_h\033\277\007U\215\276\357\"\000@\230|@\277y,\275\277?\033;\277\212N\277\276\247*\323?@|\354>X\304\252\277>T\212\276\210lg=\371Q\212?\302\3253\277?Qm>\031\251\321?\372\010\216?\235c\302>\330?\246\277\346\022\302\277\254N\231>\321\341\244>\344\201F\300evg?\301K\376\277}]r\277\316\\\206\276\272^\037\277\243\357\013?_&\033\277Q\324\253\277\350\371v>\016\231\200=\014\340\250?NJ\223?\251\031\332\276\235\034\212\277\025`\230\277\007\001\224\277\201$\225\275<\335e\275\323\026\301\277\231\253\016\300bZ\206\277\201\026\241=\224\233\355>\2256\221\276\235\237R>\367\025!\277\277C\376\275\252\261\213\277nn\276\276\265\'\375>\275\366\032\2777\343y@\2266\321>\341\243S\277\306b\346?\r\203a\2767\212\204?\323& >\311m\037\276\260M\244?\315\010\213?x\302\005>;\344\362>\330\364(\300#\372\231?r\207\224\277\001\236\220\277\325\232S\277\306j]\277y!\245<\376\310\247?\024\330G?`\321\326\276\263\234<\277@\354\316?\244\353\000\277\026~\216\276y\225\204>c/S\276\234\360\030?;\177\020\300K\323\200?.\362\306\277\325\224\024?\222p\210\277\266\372\264\276\035\236e\277\356l\265>\304\211\327\277\367\307p\277\275\364\260\274g\034R?\031\322\257?\354\241M?$b\353\277?\332\311=Q\256\236>t\374\325?\016)\021\277\000\325z?g\323\337\276.\357\220=\007,\203\277\0178\204?\"\304\374\277\320\244l\277\003k\031\277\256h\224>\364\340\276?\357\017\236?\342g\273\276\313\244\276>\246\207\243\277\207\271Z?\373 r\277\275]\272? \303\201?\315\335M\276\005\033\267\277ni\200\277L4:@\014JO?\236\025>\300\36132>\272\315\362=\317\007\302?c\2701>2(\265?i{\243?\\\2506?\027N\355?\022g\n?0\216O\277\204\323\267>\375\230?\276\224\007\177\277%\201]?S\231\000\277\343\227\030\277\004\271\306?\311*\226\275l\026-\275\304\n\016\277\230_4?\207\000u\275O\361\324\2755\361I\276{T\366\275\3036\302\275\345p,\277$\323#\276{T\366\275\207\000u\275\311*\226\275]\321\020\276\316\215\255\275\316\215\255\275\000\256\350\276\311*\226\275Q6\346\275O\361\324\275{T\366\275\3036\302\275Q6\346\275\3036\302\275\3036\302\275{T\366\275\234\270\035\276\316\215\255\275~~\264\276O\361\324\275\316\215\255\275\316\215\255\275\311*\226\275O\361\324\275\253q:\276\3036\302\275\3036\302\275\370\306\217\276Q6\346\275\311*\226\275\207\000u\275\316\215\255\275\311*\226\275\316\215\255\275k\203N?+\0065\276\311*\226\275{T\366\275\207\000u\275\352\363\t\276\311*\226\275\207\000u\275\316\215\255\275\311*\226\275\316\215\255\275\207\000u\275\316\215\255\275\3036\302\275\3036\302\275\316\215\255\275\311*\226\275\311*\226\275j\024\204\276O\361\324\275$\323#\276\3036\302\275\207\000u\275\316\215\255\275Q6\346\275\370\306\217\276+\0065\276l\026-\275\014\365\213\276\316\215\255\275]\321\020\276{T\366\275l\026-\275O\361\324\275\311*\226\275\234\270\035\276O\361\324\275\227\240\234\276\\\340\215\276\3036\302\275O\361\324\275\207\000u\275\234\270\035\276\311*\226\275\223\213\257\276\352\363\t\276\316\215\255\275\316\215\255\275\361\272)\276\3036\302\275O\361\324\275\316\215\255\275Q6\346\275l\026-\275\316\215\255\275\352\363\t\276{T\366\275l\026-\2754\301\002\276\340\272?\276\311*\226\275\316\215\255\275\352\363\t\276\234\270\035\276\361\272)\276\311*\226\275\311*\226\275\311*\226\275Q6\346\275\316\215\255\2754\301\002\276;\002\221?\316\215\255\275\3036\302\275O\361\324\275Q6\346\275\311*\226\275}k(A+u/\276\311*\226\275\317\335\341@\361\272)\276\3036\302\275\3036\302\275\3036\302\275\317\014\326\277[d\331?\340\234\215>\261\217\037>\232;\330\277r7\245>\004h\001@\312\3226>\2448\335?\327D}\276&\327.\300\320\203\342\275\0135K\277P\245}\273k\031M?*\2324\300@e @{\031\326?\316\027\320\277.\333\336>V\2250>P\240\323=r:\236\275\236s\316\277`N\337>R\247\034\274\'E\001@\353\202\326\277\370\030_>.\213\221>\007\327\026\300\231\310\324?C\353&>\265s\232=\266\026V\277Gk\335>\230`\273\276\214\000\'\275\343\222\331=\025\337\376?\245h\250>`\224\375=\316\365\236\275GJ\024\300\354\346R\276S\0339?\315\317\330>\021\302\021?\332wh\276`N\337>\000`9\300\337\023F\300\322Y\327>\223\314 >\330\202_>\225J\211\275\032.\322\277\214z\366=\316\254\034>,^\323>o\314\272=\316\027\320\277\302^\322\277\351\005\001?\243u\324;b\350\371=FL[>\264\376]>\317x\265>\220d\020\277\266u \277\320\212\345>\231.\021>a\307\322>P\337\035?\275ot?\377\332W?y\302\232=\254\016\305>\\\'\256\276\252C\177>\370\212\327=\312\177\305=we\237>q\242\220\277\340\232\256\276?\265\271\276\311\020\244>\311)f\273\233\0005\276\t{+\277\275\370\322>\315\253\007\277\016$I?\226\326\274\2767\214\000??d0>\326\003p>\276\361\303\276\274\344\004>\030\227\306\276DFx\277\2135\263\274\315\251\005\277\0075\322>\353\227\021\277\332\356d\275ky\001\277\273M\017?\323E\225\277\216\306\217>e\032;\276\355\203\242>\3157\314>\202!R\276\210\230l=HH\275\277Ut\235>OH\004\277R\254z=\202/7\276\233\"`\276\2433\210\277\336\214\240>\363f\320\274k\330\252\276\3756\223\275\033\014\245\276\327\270\205?}\255\325\275\350H8?^\273\306\276=\251\227\274&hG\276\265\207\345=}\277\210>L\203\314=\031\362 \277\033\037\325\275\230Ja<\220p\306>>=\214=\265D\313\275+\016\217\276\007}\213>\217*~\277\350\372\216\276\356\322\264\276\330l\330>g\322+?r{\233>\203\013\341\275B@A>=\026\020>\025];\277\253&\214\275\177\322X\277\020=\377=\300\262\250>~+\r\275\257\231\217\276\316\375\017\277\005\246\237\276\311\014\033\276\271\360F><{_\276\201J\331=\244?_\275j\270\004\276\006\321\346>\364iT\277\301w%\276\004\210\037\2770\306\305\276\316\317\234\276\371\n\013\277\350w\211\276J\204\233\275j\232\034\277\321\235C?1\275\024>m\014\r;\326=\213\277\272\255\205=\rI\016\277q\033@\276\231G\221\275\030N\"\276\0375\211\276JV\255\276\300\235\314\275\242\3571\277\314<\020>\005\275\266\276R\331/\274\251/,=^#\230\275|\264L\276\267\361\263=T\305N\275\t\322B?/A`?pG\337\276\265\220\201\277\022p^\275I\331?\277\026=\t?\325 \340>\222=\352>+\246\257\277\365\002\032\277\377\300\243\274n\005\023\276\234\031{\277\224\247\001\276\"\263\253\275K\212\202?\006Xj\275\250\223\031\276\263\362u>\264\313\243\276\237Rq\277\217\204]>\241\251I=|k\272>go\006?\341\200\304\275\001$\216\276]\276/\276P\356\033\276Q\215\375\276j\216g\277\250\032 \276\301\002\033\276\033\306\353>\304S\007>\227\034&\275\360\334\342\275\014\371\034?\305\326\261\277j\330\235>\242$\206\276\371\332\322\275\r\010v?\226\014\273\276\266\0234>\261\201\277>\222\\\264\274A.\331<\253\213\323>\002AG\275\010\360\326\276 9\007?Ac\355?P\265\304\2756\245<\277\357\261h\276%X\230\275i\220\t?\347&\026>T\211\307=ow8\276p\313\000>x#\'>J\031\230\277%\201]?S\231\000\277v[\326??\231$\277\311*\226\275l\026-\275\304\n\016\277\230_4?\207\000u\275O\361\324\2755\361I\276{T\366\275\3036\302\275b\257\275?$\323#\276{T\366\275\207\000u\275\311*\226\275]\321\020\276\316\215\255\275\316\215\255\275\000\256\350\276\311*\226\275Q6\346\275O\361\324\275{T\366\275\3036\302\275Q6\346\275\3036\302\275\3036\302\275{T\366\275\234\270\035\276\316\215\255\275~~\264\276O\361\324\275\316\215\255\275\316\215\255\275\311*\226\275O\361\324\275\253q:\276\3036\302\275\3036\302\275\370\306\217\276Q6\346\275\311*\226\275\207\000u\275\316\215\255\275\311*\226\275\316\215\255\275k\203N?+\0065\276\311*\226\275{T\366\275\207\000u\275\352\363\t\276\311*\226\275\207\000u\275\316\215\255\275\311*\226\275\316\215\255\275\207\000u\275\316\215\255\275\3036\302\275\3036\302\275\316\215\255\275\311*\226\275\311*\226\275j\024\204\276O\361\324\275S\251\307@\3036\302\275\207\000u\275\316\215\255\275Q6\346\275\370\306\217\276+\0065\276l\026-\275\014\365\213\276\316\215\255\275]\321\020\276{T\366\275l\026-\275O\361\324\275\311*\226\275\234\270\035\276O\361\324\275\227\240\234\276\\\340\215\276\3036\302\275O\361\324\275\207\000u\275\234\270\035\276\311*\226\275\223\213\257\276\352\363\t\276\316\215\255\275\316\215\255\275\361\272)\276\3036\302\275O\361\324\275\316\215\255\275Q6\346\275l\026-\275\316\215\255\275\352\363\t\276{T\366\275l\026-\2754\301\002\276\340\272?\276\311*\226\275\316\215\255\275\352\363\t\276\234\270\035\276\361\272)\276\311*\226\275\311*\226\275\311*\226\275Q6\346\275\316\215\255\2754\301\002\276;\002\221?\316\215\255\275\3036\302\275O\361\324\275Q6\346\275\311*\226\275\3036\302\275+u/\276\311*\226\275]\321\020\276\361\272)\276\3036\302\275\3036\302\275\3036\302\275\317\014\326\277.i=\276\340\234\215>\261\217\037>\232;\330\277\244\371\013\300\331c\266\277\312\3226>e\336<\276\327D}\276f\024V@\320\203\342\275\0135K\277P\245}\273k\031M?\350\021\003?\306\003\n\300\036\030B\276\316\027\320\277.\333\336>V\2250>P\240\323=r:\236\275\236s\316\277`N\337>R\247\034\274\2415\262\277\353\202\326\277\370\030_>.\213\221>W\325f\277\267\346@\276C\353&>G\304\367\277\266\026V\277Gk\335>\230`\273\276\374\370$\300\343\222\331=r\360\264\277\'A\n\300`\224\375=\316\365\236\275\255Uc\277\354\346R\276S\0339?\315\317\330>\006\312\245\277\332wh\276`N\337>\263I\035?\361\023\346>\322Y\327>\223\314 >\330\202_>\225J\211\275\032.\322\277\214z\366=\316\254\034>,^\323>o\314\272=\316\027\320\277\302^\322\277\351\005\001?\243u\324;b\350\371=FL[>\264\376]>\317x\265>\220d\020\277\266u \277\320\212\345>\231.\021>a\307\322>P\337\035?\303\345E\300\232\342\336\275y\302\232=\274_#\300s\216i\277g\232\232\277\361|\307\276\221\235\343\276\336\362\225\277\000/\276\277\340\232\256\276?\265\271\276\311\020\244>W\317\213\277g\271p\276@\362\221\277\233\335\000?\337\311\240\277\023\035\017\275\315z\243\277\247\350@?\305o\200\277\252\232\233>\"\312\333>\320L\330>\370\356l\276h\224\343>\3227\324?\243\253\360>\252\371k?O7`\276g\345\231?\335x}?I\'\325>\314]\353\277W\362g?\344XS>\216?C\277\240\223\221<\037,\361>\277\\8?\214\006\371\276\336\034\217\277\313O\267?Ue\000?\372\3130=\361*s>\207d\260\277\003|&\276\336\316g\276hW\232?{\017\254\273\020u\203\277_\'\007\277\2001\243\277\235\000+<\235\021+>V\366D\277\234V\215>\323Z\037?\r\332\235\276\265\312\307?dj\201\277_5\022?\365\250\265\275x\222W@7\327B>w\031\203\276\367\207\005\276\271\277F?\262g\245\277\362\026\341\276\0307\220\277H{\273\276\2220\263\276\242B\335?\250\367\366\276]\224\226>\204hq\277\236\260:\2773F\366\276\303\306\265\276\365O\237=f\374i?#\007x\277\247\215\315\276\207\275\213\274\333\234j\277\352\225Q?:\023\273\277L\345\245\277a\213\221\277\326cd\277\203ZM\277\266\201\221?\034CH\2772\263\214?N\300\255?\376x{\277\272\223\325>\3563\231\277P\220\335\276k\216H<\204\250\207\275W\372C\277\3325\021\277ob\327\277\'\335.\277`\300/\275\275\226\270\276\221\337\020\277\014\350H\277\004;\025@]yI\277\240\022g\277\313\016\347?0\326\230?~\213\034\277k\330\006\2773\340\263\276\337S\205\276\037\207=\277\323.L\277\226\227\002\2775\202\000?\017\320\204>\311?\312?\233?j\277\301\303V>3\006\002?+=c?\367\331\371\275\244\306\213>\202G\311\277\370\315-\277\352<\211\277O\035\266\276\264\225.?\001\026\342\276\003\225\370=\210\2537\276;\217\344?/\224s?\375\311\210?\265L\032\277\3271\233?\302\370\327\276<\345\331\275\327W\002@\202\221\222>R\345/\277\225\253\020?a\303\324?\207R\376\273q\255<\277\017\244\214?\202Xm>\273K\235\277\017zy>l\373^>j\243\277>_\362\327;\364\227\277>$\001V?\365\027\304>\325A\333?+\307\367<-\337\377>lT\211>\212t\336>\337\362\345?\n\016+?\031\320\374>\340\023\234?-\215\244?\026\321\347=\276\315\260\276\270\234%\277\020\333M\276xU\361\276\366\356?\277$\272c>\230yy?\370(\017\276\032\256\204\277\233M\235>\242\017\272\277 \246*\277\252p\220\276exa>n\253\223\277S\231\000\277\343\227\030\277\004\271\306?\311*\226\275l\026-\275\304\n\016\277\230_4?\207\000u\275O\361\324\2755\361I\276{T\366\275\3036\302\275b\257\275?$\323#\276{T\366\275\207\000u\275\311*\226\275]\321\020\276\316\215\255\275\316\215\255\275\000\256\350\276\311*\226\275Q6\346\275O\361\324\275{T\366\275\3036\302\275Q6\346\275\3036\302\275\3036\302\275{T\366\275\234\270\035\276\316\215\255\275~~\264\276O\361\324\275\316\215\255\275\316\215\255\275\311*\226\275O\361\324\275\253q:\276\3036\302\275\3036\302\275\370\306\217\276Q6\346\275\311*\226\275\207\000u\275\316\215\255\275\311*\226\275\316\215\255\275k\203N?+\0065\276\311*\226\275{T\366\275\207\000u\275\352\363\t\276\311*\226\275\207\000u\275\316\215\255\275\311*\226\275\316\215\255\275\207\000u\275\316\215\255\275\3036\302\275\3036\302\275\316\215\255\275\311*\226\275\311*\226\275j\024\204\276O\361\324\275$\323#\276\3036\302\275\207\000u\275\316\215\255\275Q6\346\275\370\306\217\276+\0065\276l\026-\275\014\365\213\276\316\215\255\275]\321\020\276{T\366\275l\026-\275O\361\324\275\311*\226\275\234\270\035\276O\361\324\275\227\240\234\276\\\340\215\276\3036\302\275O\361\324\275\207\000u\275\234\270\035\276\311*\226\275\223\213\257\276\352\363\t\276\316\215\255\275\316\215\255\275\361\272)\276\3036\302\275O\361\324\275\316\215\255\275Q6\346\275l\026-\275\316\215\255\275\352\363\t\276{T\366\275l\026-\2754\301\002\276\340\272?\276\311*\226\275\316\215\255\275\352\363\t\276\234\270\035\276\361\272)\276\311*\226\275\311*\226\275\311*\226\275Q6\346\275\316\215\255\2754\301\002\276;\002\221?\316\215\255\275\3036\302\275O\361\324\275Q6\346\275\311*\226\275\3036\302\275+u/\276\311*\226\275]\321\020\276\361\272)\276\3036\302\275\3036\302\275\3036\302\275p\331\332>[d\331?\340\234\215>\261\217\037>\355\033\373>r7\245>\331c\266\277\312\3226>\2448\335?\327D}\276\001\365\234>\320\203\342\275\032\242\202?P\245}\273k\031M?\350\021\003?\306\003\n\300{\031\326?\330!\371>.\333\336>V\2250>P\240\323=r:\236\275\313*\367>`N\337>R\247\034\274\2415\262\277\364\235\342>\370\030_>.\213\221>o\261\r?\231\310\324?C\353&>\265s\232=\262\357j?Gk\335>\230`\273\276\214\000\'\275\343\222\331=r\360\264\277\245h\250>`\224\375=\316\365\236\275\302}\n?\354\346R\276S\0339?\315\317\330>\021\302\021?\332wh\276`N\337>\263I\035?\361\023\346>\322Y\327>\223\314 >\330\202_>\225J\211\275\030\226\361>\214z\366=\316\254\034>,^\323>o\314\272=\330!\371>\323\302\001?\351\005\001?\243u\324;b\350\371=FL[>\264\376]>\317x\265>\220d\020\277\230\000\224?\320\212\345>\231.\021>a\307\322>P\337\035?\000\321\'\276\250\236\210@y\302\232=\254\016\305>\212p\314>\252C\177>\370\212\327=\312\177\305=\005\263\215\276\243\257\272>d\221s\300k\374\212\276\311\020\244>\236k\005@!J\025\277\353\350v\277\350_\241\275`K\373\276\3463B\277\346\014\357?\251w\222\275\346\214\326\276\303\343\200\277\260\271 \277l\264\351?=?\323>\007\010d\277\201\207\202?~\2624>\014@\376\273\235\244\241\277\324\243)\277\311\307\272\275\023\256a\276\363\t\207\277\233`8@\253eR?\350\352}\276\036\023\306\275\200Z\227?\207\367\302?\367\364U@\276\301\236>\340\203\201@\255+\360?\217\215\002?\374]\253=\344\311\252?\374\355\356\276u\360\350>3\371\315@#\022\273?\315\374\351?+*i?j(\213\277\262\020\343\276[\322\241?+`\234>\016\276\247?\243\242\310\276B\202\002>\345H\245\276\274\020_\277*2]>\225\257K?[l\203\276\277\267\021>$\342\002=\267\001\245=\037\360\332?\306o\364\276n\035\221?P\361\025@@\007\237\277\316s\004>L\006\371>;\004\336?O\247\244>Z\374\000>|]\244?J}\245\277(=\256\277\020A\376\276e\260\265\275st\345\276\002\355N>d\244\013>\335g\307\276u\345\224@\232\301\331\277{u\007\276\n\375\227\277\323\325Y\277U\354k?\362\021\241>\240\332\227?\332n\255<F\037\377\276\205\267/\277\253\2745\277\025\240;?\304\024u\277(&0?\247\207\357?\322}y=4Q\310\277\220wD?\233\355\253?\035\344\374\275$\t\267\276\200\234\306?k\342G=t\031\014\277\366bN\277\263\251\227\277e\223\224\277\265\302\313?8s\352\276\352;X\277&\030=<\323\000o\277\021n\225\277\203\357\234\277\300\225\202>\005\216D\276\365\303&\277\013\034q\277B\316d\277N]\253\276!v\351=\277D\225?\374\244\006\277\373\313<@\250\035\006@5m\354?\271\247\245\277c\244[\276\362\357i?\234|\233\277hd\333\277aH\260\277\352\235\r\275V\340}\277\311\202\201\277u\314\216\277\rZ\231>\232}\010@\373\354\304\274\217y\t?\271\252\267\276\366pK>mD\316?S\366\313>\274\324\032?\303\307\306=j6\314@5\262\256\277*`\333\276=\302\243\277ZN>\277\275\305\305;\273\253\007>\221s\027?\346\033-\276\006\3361\277\350r\202?\310B\302>\007\274p?]V}\275\2005;?\341D=@\336\206b\277\324\346\345?>\275\246\277n?\217\276L\361K\2779\367\n?\032\0039\277\321\240\301>2\3734?\031_X?\337\345b?P\303\r\276\300\244\r@\324\036\r\277\030\352S\277\347\264\362\277$\327\346\276\305\231\206\277oP\n?n\253\223\277S\231\000\277v[\326??\231$\277\311*\226\275l\026-\275\304\n\016\277\230_4?\207\000u\275O\361\324\2755\361I\276{T\366\275\3036\302\275\345p,\277S\251\307@{T\366\275\207\000u\275\311*\226\275]\321\020\276\316\215\255\275\316\215\255\275\000\256\350\276\311*\226\275Q6\346\275O\361\324\275{T\366\275\3036\302\275Q6\346\275\3036\302\275\3036\302\275{T\366\275\234\270\035\276\316\215\255\275~~\264\276O\361\324\275\316\215\255\275\316\215\255\275\311*\226\275O\361\324\275\253q:\276\3036\302\275\3036\302\275\370\306\217\276Q6\346\275\311*\226\275\207\000u\275\316\215\255\275\311*\226\275\316\215\255\275k\203N?+\0065\276\311*\226\275{T\366\275\207\000u\275\352\363\t\276\311*\226\275\207\000u\275\316\215\255\275\311*\226\275\316\215\255\275\207\000u\275\316\215\255\275\3036\302\275\3036\302\275\316\215\255\275\311*\226\275\311*\226\275j\024\204\276O\361\324\275$\323#\276\3036\302\275\207\000u\275\316\215\255\275Q6\346\275\370\306\217\276+\0065\276l\026-\275\014\365\213\276\316\215\255\275]\321\020\276{T\366\275l\026-\275O\361\324\275\311*\226\275\234\270\035\276O\361\324\275\227\240\234\276\\\340\215\276\3036\302\275O\361\324\275\207\000u\275\234\270\035\276\311*\226\275\223\213\257\276\352\363\t\276\316\215\255\275\376w<A\361\272)\276\3036\302\275O\361\324\275\316\215\255\275Q6\346\275l\026-\275\316\215\255\275\352\363\t\276{T\366\275l\026-\2754\301\002\276\340\272?\276\311*\226\275\316\215\255\275\352\363\t\276\234\270\035\276\361\272)\276\311*\226\275\311*\226\275\311*\226\275Q6\346\275\316\215\255\2754\301\002\276;\002\221?\316\215\255\275\3036\302\275O\361\324\275Q6\346\275\311*\226\275\3036\302\275+u/\276\311*\226\275]\321\020\276\361\272)\276\3036\302\275\3036\302\275\3036\302\275p\331\332>.i=\276\340\234\215>\261\217\037>\355\033\373>r7\245>\331c\266\277\312\3226>e\336<\276\327D}\276\001\365\234>\320\203\342\275\032\242\202?P\245}\273k\031M?\350\021\003?\320\0133>\036\030B\276\330!\371>.\333\336>V\2250>E\215\002\300r:\236\275\313*\367>`N\337>R\247\034\274\2415\262\277\364\235\342>\370\030_>.\213\221>o\261\r?\267\346@\276C\353&>\265s\232=\262\357j?Gk\335>\264\364\251?\214\000\'\275\343\222\331=r\360\264\277\245h\250>`\224\375=\316\365\236\275\302}\n?\354\346R\276S\0339?\315\317\330>\006\312\245\277\203\203\\\300`N\337>\263I\035?\361\023\346>\322Y\327>\270N\227\300\330\202_>\225J\211\275\030\226\361>\314\342\220\300\316\254\034>,^\323>o\314\272=\330!\371>\323\302\001?\351\005\001?\243u\324;\355\212\301\277FL[>\264\376]>\317x\265>\220d\020\27775O\276\320\212\345>\231.\021>a\307\322>P\337\035?J\353)>\232\342\336\275y\302\232=%\365\205\276\212p\314>\252C\177>\370\212\327=\312\177\305=\005\263\215\276\243\257\272>\340\232\256\276?\265\271\276\311\020\244>\237\317\300\276\351\313W\276s4\241>\301\262\362\276\205J\377<\313\367\375=\007\272\243\276\243\266\032>\346\303]\276\200\276$?\332\355\030?\321\213\303\276\264\323\252>\037W1?\235\201Q\275\306\347\304\276\032z\014>\021cZ>S\324V>d\361\214>s\215\302\2761Au?\n\305\317\276M\326\326=\230\030\343\274!\231\363\274i\304+\277p\331\333\276\177x\245>\361\217|\276\344MR\277D\321Z>|\376\316>\322\2747\277f\200&\277\213\331\311\275w\352\274\276\364\260\205\276\371\312\036\277\242\277\344\275Jo]=\226\314\237\276\336\255\232\276\355\336\004\277\004\t\225\276$\374e\277\035\226\262\276\034\002`?\217\360\246\276\273\306\013\277\016\240\007>\204\022\371=\"k\t>T\0056=&\351\301\275\177\236\240\276qs\214\276\347\3114?\206m\241\276\021\300\'\277\375\205\037\277\200E\003\272\310\002v\273\364\220\r\277\362\220\347\275\353I\376\275\242\035\222\276\376gC\277\351\007\324>\025\346j?\004B\326>\350\325\235\276\332\375\237\276in\254\276\301\356\276\276\340D\250\276i\203\036\276\267e\334\275\372\246\301\276\212Y\215=\276\035\300=\221\255\205>\374BX>$U\223\276\202\217[>tqz=\227\205\201\276Kn\306\276Y\017b?\020e#\277j\026w\277\357\212\243\276\010\207k\276=no>xL\335=\3458\244=\201)P\277X\223\212\276\265\321\351\276\227s\240>\376\337S=\364|\377>O\303??\301\221\246\273\325\323J\275\202\334\250\276\271#\360\274v\305\017\2744\237\027>Y)\370=\300\237\220\276\023\255p?t\210\252>m\275p\275\250KA>\346\031\202\276`\210\207>\326\366\217\277h\267\332=\026\313B\276:I%>\177\027?>\2354\356<\374\251\037?\311\014\316>\n\363\357>\177\200\262=\254\034Z\275\000\377\376\273\0014\003\277\237>|=v\306?;\216\030G\276\352\304\037?\220\250\277\276\367\343{\276\264\317\022\276\262\223%?\352D\013\277e\324\001> \345\035\277\372<\300\276\362\243\216=\025\022\006?\377\250*\277\3161\033?\366*U?\277\204\345\275\363\267-\276BM(\277\257\356\260\273\307\335\255\276\334\n4\276M\233\371=W\260\332\274\336TX\276\\e\376\276H\313\276\275gt\340\276i\037!\277e~U>\210\347W\277\372\026\214\267\014P\261>YB\301\276V\"\200>\265\212\345>KG\317\276X\300\203\276\356\224\000?\002\'\302=8h-\276\371iE\275\320\335\240\275\260\314\227=\210\373\276\276exa>%\201]?S\231\000\277\343\227\030\277\004\271\306?\311*\226\275l\026-\275\304\n\016\277\332W\265\277\207\000u\275O\361\324\2755\361I\276{T\366\275\3036\302\275\345p,\277$\323#\276{T\366\275\207\000u\275\311*\226\275]\321\020\276\316\215\255\275\316\215\255\275\000\256\350\276\311*\226\275Q6\346\275O\361\324\275{T\366\275\3036\302\275Q6\346\275\3036\302\275\3036\302\275{T\366\275\234\270\035\276\316\215\255\275\31785@O\361\324\275\316\215\255\275\316\215\255\275\311*\226\275O\361\324\275\253q:\276\3036\302\275\3036\302\275L\200c@Q6\346\275\311*\226\275\207\000u\275\316\215\255\275\311*\226\275\316\215\255\275k\203N?+\0065\276\311*\226\275{T\366\275\207\000u\275\352\363\t\276\311*\226\275\207\000u\275\316\215\255\275\311*\226\275\316\215\255\275\207\000u\275\316\215\255\275\3036\302\275\3036\302\275\316\215\255\275\311*\226\275\311*\226\275j\024\204\276O\361\324\275$\323#\276\3036\302\275\207\000u\275\316\215\255\275Q6\346\275\370\306\217\276+\0065\276l\026-\275\014\365\213\276\316\215\255\275]\321\020\276\212\311\004Al\026-\275O\361\324\275\311*\226\275\234\270\035\276O\361\324\275\037\326P@\\\340\215\276\3036\302\275O\361\324\275\207\000u\275\234\270\035\276\311*\226\275\223\213\257\276\352\363\t\276\316\215\255\275\316\215\255\275\361\272)\276\3036\302\275O\361\324\275\316\215\255\275Q6\346\275l\026-\275\316\215\255\275;\033\355@{T\366\275l\026-\2754\301\002\276\340\272?\276\311*\226\275\316\215\255\275\352\363\t\276\234\270\035\276\361\272)\276\311*\226\275\311*\226\275\311*\226\275Q6\346\275\316\215\255\2754\301\002\276\261\221a\277\316\215\255\275\3036\302\275O\361\324\275Q6\346\275\311*\226\275\3036\302\275+u/\276\311*\226\275]\321\020\276\361\272)\276\3036\302\275\3036\302\275\3036\302\275p\331\332>.i=\276\340\234\215>\261\217\037>\355\033\373>r7\245>_\330\230>\312\3226>e\336<\276\327D}\276\2068\233\277\320\203\342\275\0135K\277P\245}\273k\031M?\260\325\223\277\320\0133>\036\030B\276\330!\371>.\333\336>V\2250>P\240\323=r:\236\275\313*\367>`N\337>R\247\034\274Y\251\240>\364\235\342>\370\030_>.\213\221>W\325f\277\267\346@\276C\353&>\265s\232=\266\026V\277Gk\335>\230`\273\276\214\000\'\275\343\222\331=E\335\223>\245h\250>`\224\375=\316\365\236\275\255Uc\277\354\346R\276S\0339?\315\317\330>\021\302\021?\332wh\276`N\337>\224\r\222\277aQ\251\277\322Y\327>\223\314 >\330\202_>\225J\211\275\030\226\361>\214z\366=\316\254\034>,^\323>o\314\272=\330!\371>\323\302\001?/W\374\277\243u\324;b\350\371=FL[>\264\376]>\317x\265>\220d\020\277\266u \277\320\212\345>\231.\021>a\307\322>P\337\035?J\353)>\232\342\336\275y\302\232=\254\016\305>\212p\314>\252C\177>\370\212\327=\312\177\305=\357\303h>\355\266\303\277\340\232\256\276?\265\271\276\311\020\244>6\330\212\276\001kh?\016_\355\275\022\246_>n\220\006?\361\303B?B\335\244\277Rl\363?c\353\242>\001|\311?~\365\245?\341\231!\277\222\207\252>\366aF?\214\032\216\277\306Z\213\276\350\230\247>V\246^?\253\007_>\336Py>\206C\257<\3530\255?S\223\227\276\275\277\343\276J\256\340\276TQ\021?\202\213\'\275\345_\305?\247\234r\277\356,\341>\262\033M\277\247\257\362?;~\201?\332\034\223\276\216\324{\277\222QX\275m*\332\277\217h\030\277\306Y3\276\222[\237\275d\n\200\277#\347w\277\306\036\225\277\0079\355\276\001l\335\276\365\013<\277Z\266\307\276\274\274H\277\351\036\323>\234;<\277=&\036\277uz\334?\211\272\376>*=\341>d\2222\276\343\242\335\276\320>\336;9P\211?F\250\274\276\310\234\206\277\315?Z?\337\006\033?\031\017\361>\014p2\276b\367\307\276Q\035\315\276A\0278\275\304\255\205\276\036\272\232?c\035\341\276\322\326\360=\222\255?\276gy\350\276\017\277\261>\320I\241?\032\304\370\276\366]\271>\206\251\321>\204\031\227=\020\342\224?\231\265\250>\260\r\214>\305+\n>C\332\320>\375\306U\277EyF?\325l{\277\246\361\262\276\337\322\261?\341\037\023\277%\207\017\277\340\222\266>\345\306#\277$.\'?\250\322\244>\214\177\201?\261p\225<j)\244\276&\265\254\277jUt\277\360\004\211?pf\241?\320\262o?\371\206Z\273\2729\342\2735\005\n?\243jU>\251\337\311>n\370\301=%\214:?s\352f>l\241\275>\322\236\016\277SY\361\277\'\367\202?\341id\277?\276\276<x~Q\276\351z\322>@\301\347\276R\275\357\277\205\017H?\034\340\372\276#\266\201?\001\215\243\277Z\"\307=\270\224\302\276\276\324w\276a\000(\275\370\337@\277\321\233\033\276\347\333O\275\362U\273<<\376\352\276\273E\327\276`\365\204@\202\315\322>\017\006\360=2\010\353\276\036\253\274\277\200^]\277\250\230%\277{\255[\277\212Q\312?\201\335\241\277\312\035_?\370\376\200\274\0068\000?\354S\316\276G\177g\277r\306\215\276\026\307O?s\253\323\276a\203*>f\263[\277\001\010\224?\321\024\221\277\031\246\340\277X\360\366\276\001:\360=\344s\262>UL\346\275z<\231?\216\275\210>\351\355\264\277\325rG=m\326(\277w\367Y\277\300C\215\277\261X@\275\371\362\014\277\202\257x\276j\027o<\270\014\315>u\206\261=\215g\240\275>\025-\277%\201]?S\231\000\277v[\326??\231$\277\311*\226\275l\026-\275\304\n\016\277\230_4?\207\000u\275O\361\324\2755\361I\276{T\366\275\3036\302\275b\257\275?$\323#\276{T\366\275\207\000u\275\311*\226\275]\321\020\276\316\215\255\275\316\215\255\275\000\256\350\276\311*\226\275Q6\346\275O\361\324\275{T\366\275\3036\302\275Q6\346\275\3036\302\275\3036\302\275{T\366\275\234\270\035\276\316\215\255\275~~\264\276O\361\324\275\316\215\255\275\316\215\255\275\311*\226\275O\361\324\275\253q:\276\3036\302\275\3036\302\275\370\306\217\276Q6\346\275\311*\226\275\312\201\205A\316\215\255\275\311*\226\275\316\215\255\275k\203N?+\0065\276\311*\226\275{T\366\275\207\000u\275\352\363\t\276\311*\226\275\207\000u\275\316\215\255\275\311*\226\275\316\215\255\275\207\000u\275\316\215\255\275\3036\302\275\3036\302\275\316\215\255\275\311*\226\275\311*\226\275j\024\204\276O\361\324\275$\323#\276\3036\302\275\207\000u\275\316\215\255\275Q6\346\275\370\306\217\276+\0065\276l\026-\275\014\365\213\276\316\215\255\275]\321\020\276{T\366\275l\026-\275O\361\324\275\311*\226\275\234\270\035\276O\361\324\275\227\240\234\276\\\340\215\276\3036\302\275O\361\324\275\207\000u\275\234\270\035\276\311*\226\275\223\213\257\276\352\363\t\276\316\215\255\275\316\215\255\275\361\272)\276\3036\302\275O\361\324\275\316\215\255\275Q6\346\275l\026-\275\316\215\255\275\352\363\t\276{T\366\275l\026-\2754\301\002\276\340\272?\276\311*\226\275\316\215\255\275\352\363\t\276\234\270\035\276\361\272)\276\311*\226\275\311*\226\275\311*\226\275Q6\346\275\316\215\255\2754\301\002\276;\002\221?\316\215\255\275\3036\302\275O\361\324\275Q6\346\275\311*\226\275\3036\302\275+u/\276\311*\226\275]\321\020\276\361\272)\276\3036\302\275\3036\302\275\3036\302\275p\331\332>.i=\276\340\234\215>\277[i@\355\033\373>r7\245>_\330\230>\312\3226>e\336<\276\020\226P@\001\365\234>\320\203\342\275\0135K\277P\245}\273\365\315\262\276\260\325\223\277\320\0133>\036\030B\276\330!\371>.\333\336>V\2250>P\240\323=r:\236\275\313*\367>`N\337>\252\363+\300Y\251\240>\364\235\342>\370\030_>\272\237P@o\261\r?\267\346@\276C\353&>\265s\232=\266\026V\277Gk\335>\230`\273\276\214\000\'\275\343\222\331=E\335\223>\245h\250>`\224\375=\316\365\236\275\302}\n?\342\022\245@S\0339?\315\317\330>\021\302\021?\001\013\353\277`N\337>\224\r\222\277aQ\251\277\322Y\327>\223\314 >\330\202_>\225J\211\275\030\226\361>\214z\366=\316\254\034>,^\323>o\314\272=\330!\371>\323\302\001?\367\235\203\275\371\026\217\277b\350\371=FL[>\264\376]>\317x\265>\220d\020\277\266u \277\231\203\027\300\231.\021>a\307\322>P\337\035?J\353)>\232\342\336\275y\302\232=\254\016\305>\212p\314>\252C\177>\370\212\327=\312\177\305=\005\263\215\276\243\257\272>\340\232\256\276?\265\271\276\311\020\244>\274%\027\276\373rZ\277\tJ\217>b\242\275\273p\316\231\277\271\226;>\224*\'\277\021\273\236?\023\371\335\277\266]\236\276%R[\276/tP\277\312q+?\2634\215?\263t\277\2752\245s\277\325u\217\276\013\366 ?{\273+=\261h\370\276\210\250\251=\306G\206\277J\333\315\276\346\371\350?\254\003\014\277\\\214*?\340\327\213?+8\277?\306\206U>\'\213\356\276\250\333\256\276\007n\035@\2527\003?\317\362\202\277.+\247\277{pu\277\000{\277\277\303\274\265?H\247\265\276\0369\271>\302w!\277\225\230\265\276\221\\B\277\256\320W\277\2628\023\276\201\031\304\275D\032\301\276`\335\322\277\343\000\250\275\344\0219\277!PI>a\202\033@7\352\247\276\367\252|\275\023\274\302>\355\315\217\276$\336\202\276e\273\272\277j\345\003@*`\211?\330K\217\277=\362-\277ef=?\302\322!\2773\214\034\275\326&/\277\037\331\t@+\277\360>%\356t\276\004\204o?\225DK?\372\362\001\277\307\210\233>P\374\315\274Q\374s>\266\321\217?\322\243\324\277L\320\212\277\016(\277\277,-\340\274\213\216O?\371+9?\0071\007\277L\303\267>\231\034\241?\265\277\221\277\260\244\221\277\372+\227\277\300+;>\324\320\253\277\375(\013\276\357j\034\300>0\345\276\235\016\206?\225\230\314?z\n,?\027\342N\277\376\273>\277\035\243\227\276,\312\034@\031\021\010\300\373\235\265\277\277\274Y?_\241\373?\345\003-\277\221\346M?a\260\350>\220\307C\275\227\375S\277.\202\003>|q\256>\205\222\377?\002\345z\276\177zr?\236 P\276\271k\321\275\017\333\307?\037\324\005\277d\244[\277\212\300\000@R\377E\277N\202\271>?\365\271\277\335\214\354>\363M`>\014|U>\255\006\232\2755\023X\276\013PO?Y?\327\276\256\367\322\276\003b\203\277\310J\270\277\252\242\245>\314\017\326\277\260N\007\277\253p\222?O\240\344\276[\276*\277ql\204?0t\027\277\363\222P\275\202~\300?@!\310>\007m\010\277\255\275`>\216A\322<\004\243F?\035\014\226?\302s\327\276\367\247\372>;\252\257\277\370!x?\221g\302?\315\361,\276\225\301n\277\231o\321\277[\360\274>\211\022.>t>D@#\'\214?\323>\250>R\2768>\303\343\225?\301u\016>L\312\315\276\222<\370>)9\265\276y}0\276{M_?\377\200\257\276-\232\270\276]2^?Q(\333\277\357\372\315\277{\357\340\277\366\247\331\277n\253\223\277S\231\000\277\343\227\030\277?\231$\277\311*\226\275l\026-\275\301G\346?\230_4?\207\000u\275O\361\324\2755\361I\276{T\366\275\3036\302\275b\257\275?$\323#\276{T\366\275\207\000u\275\311*\226\275]\321\020\276\316\215\255\275\316\215\255\275\000\256\350\276\311*\226\275Q6\346\275O\361\324\275{T\366\275\3036\302\275Q6\346\275\3036\302\275\3036\302\275{T\366\275\234\270\035\276\316\215\255\275~~\264\276O\361\324\275\316\215\255\275\316\215\255\275\311*\226\275O\361\324\275\253q:\276\3036\302\275\3036\302\275\370\306\217\276Q6\346\275\311*\226\275\207\000u\275\316\215\255\275\311*\226\275\316\215\255\275k\203N?+\0065\276\311*\226\275{T\366\275\207\000u\275\352\363\t\276\311*\226\275\207\000u\275\316\215\255\275\311*\226\275\316\215\255\275\207\000u\275\316\215\255\275\3036\302\275\3036\302\275\316\215\255\275\311*\226\275\311*\226\275j\024\204\276O\361\324\275$\323#\276\3036\302\275\207\000u\275\316\215\255\275Q6\346\275\370\306\217\276+\0065\276l\026-\275\014\365\213\276\316\215\255\275]\321\020\276{T\366\275l\026-\275O\361\324\275\311*\226\275\234\270\035\276O\361\324\275\037\326P@\\\340\215\276\3036\302\275O\361\324\275\207\000u\275\234\270\035\276\311*\226\275\223\213\257\276\352\363\t\276\316\215\255\275\316\215\255\275\361\272)\276\3036\302\275O\361\324\275\316\215\255\275Q6\346\275l\026-\275\316\215\255\275\352\363\t\276{T\366\275l\026-\2754\301\002\276\340\272?\276\311*\226\275\316\215\255\275\352\363\t\276\234\270\035\276\361\272)\276\311*\226\275\311*\226\275\311*\226\275Q6\346\275\316\215\255\2754\301\002\276;\002\221?\316\215\255\275\3036\302\275O\361\324\275Q6\346\275\311*\226\275\3036\302\275+u/\276\311*\226\275]\321\020\276\361\272)\276\3036\302\275\3036\302\275\3036\302\275p\331\332>.i=\276\340\234\215>\316p\313\277\355\033\373>r7\245>\331c\266\277\312\3226>e\336<\276|\t\000\300\001\365\234>8\037?@\0135K\277\321\365\n\300k\031M?\350\021\003?\306\003\n\300\036\030B\276\330!\371>.\333\336>V\2250>P\240\323=r:\236\275\313*\367>`N\337>R\247\034\274\2415\262\277\364\235\342>\370\030_>.\213\221>o\261\r?\267\346@\276C\353&>\265s\232=\266\026V\277Gk\335>\230`\273\276\214\000\'\275\343\222\331=r\360\264\277\245h\250>`\224\375=\316\365\236\275\302}\n?\354\346R\276S\0339?\315\317\330>\006\312\245\277\332wh\276`N\337>\263I\035?\361\023\346>\322Y\327>\223\314 >\330\202_>\225J\211\275\030\226\361>\214z\366=\316\254\034>,^\323>o\314\272=\330!\371>\323\302\001?\351\005\001?\243u\324;b\350\371=FL[>\264\376]>\317x\265>\220d\020\277\266u \277\320\212\345>\231.\021>a\307\322>P\337\035?\233\327g\300\232\342\336\275y\302\232=\254\016\305>\212p\314>\252C\177>\370\212\327=\312\177\305=\005\263\215\276\243\257\272>\340\232\256\276?\265\271\276\311\020\244>\225\031z\277\373\357g\275\261\237~\277\373i\215\277N\021\336?\013U\214?\020\363\356\276\232\034e?\260\037q\277\274\230\304>\356\227\273>\265\0022\277\225C\373\276\315\270#\276L9 @\001\234\307\277\212\205\276>@\362N?\374+\227\274\206:\224\275\273\364\304\276>\257F?M\304\206?\245i\265\277#\326?\2760,